{
  "version": "1.0",
  "truncation": null,
  "padding": null,
  "added_tokens": [
    {
      "id": 0,
      "content": "<UNK>",
      "single_word": false,
      "lstrip": false,
      "rstrip": false,
      "normalized": false,
      "special": true
    },
    {
      "id": 1,
      "content": "<SEP>",
      "single_word": false,
      "lstrip": false,
      "rstrip": false,
      "normalized": false,
      "special": true
    },
    {
      "id": 2,
      "content": "<MASK>",
      "single_word": false,
      "lstrip": false,
      "rstrip": false,
      "normalized": false,
      "special": true
    },
    {
      "id": 3,
      "content": "<CLS>",
      "single_word": false,
      "lstrip": false,
      "rstrip": false,
      "normalized": false,
      "special": true
    }
  ],
  "normalizer": {
    "type": "Sequence",
    "normalizers": [
      {
        "type": "NFKC"
      },
      {
        "type": "StripAccents"
      },
      {
        "type": "Lowercase"
      }
    ]
  },
  "pre_tokenizer": {
    "type": "Whitespace"
  },
  "post_processor": null,
  "decoder": null,
  "model": {
    "type": "BPE",
    "dropout": null,
    "unk_token": "<UNK>",
    "continuing_subword_prefix": null,
    "end_of_word_suffix": null,
    "fuse_unk": false,
    "byte_fallback": false,
    "vocab": {
      "<UNK>": 0,
      "<SEP>": 1,
      "<MASK>": 2,
      "<CLS>": 3,
      "\u0002": 4,
      "!": 5,
      "\"": 6,
      "#": 7,
      "$": 8,
      "%": 9,
      "&": 10,
      "'": 11,
      "(": 12,
      ")": 13,
      "*": 14,
      "+": 15,
      ",": 16,
      "-": 17,
      ".": 18,
      "/": 19,
      "0": 20,
      "1": 21,
      "2": 22,
      "3": 23,
      "4": 24,
      "5": 25,
      "6": 26,
      "7": 27,
      "8": 28,
      "9": 29,
      ":": 30,
      ";": 31,
      "<": 32,
      "=": 33,
      ">": 34,
      "?": 35,
      "@": 36,
      "[": 37,
      "\\": 38,
      "]": 39,
      "^": 40,
      "_": 41,
      "`": 42,
      "a": 43,
      "b": 44,
      "c": 45,
      "d": 46,
      "e": 47,
      "f": 48,
      "g": 49,
      "h": 50,
      "i": 51,
      "j": 52,
      "k": 53,
      "l": 54,
      "m": 55,
      "n": 56,
      "o": 57,
      "p": 58,
      "q": 59,
      "r": 60,
      "s": 61,
      "t": 62,
      "u": 63,
      "v": 64,
      "w": 65,
      "x": 66,
      "y": 67,
      "z": 68,
      "{": 69,
      "|": 70,
      "}": 71,
      "~": 72,
      "": 73,
      "": 74,
      "": 75,
      "": 76,
      "": 77,
      "": 78,
      "": 79,
      "": 80,
      "": 81,
      "": 82,
      "": 83,
      "": 84,
      "": 85,
      "": 86,
      "": 87,
      "": 88,
      "": 89,
      "": 90,
      "": 91,
      "¡": 92,
      "¢": 93,
      "£": 94,
      "¤": 95,
      "¥": 96,
      "¦": 97,
      "§": 98,
      "©": 99,
      "«": 100,
      "¬": 101,
      "­": 102,
      "®": 103,
      "°": 104,
      "±": 105,
      "¶": 106,
      "·": 107,
      "»": 108,
      "¿": 109,
      "×": 110,
      "ß": 111,
      "à": 112,
      "á": 113,
      "â": 114,
      "ã": 115,
      "ä": 116,
      "å": 117,
      "æ": 118,
      "ç": 119,
      "è": 120,
      "é": 121,
      "ê": 122,
      "ë": 123,
      "ì": 124,
      "í": 125,
      "î": 126,
      "ï": 127,
      "ð": 128,
      "ñ": 129,
      "ò": 130,
      "ó": 131,
      "ô": 132,
      "õ": 133,
      "ö": 134,
      "÷": 135,
      "ø": 136,
      "ù": 137,
      "ú": 138,
      "û": 139,
      "ü": 140,
      "ý": 141,
      "þ": 142,
      "ÿ": 143,
      "ā": 144,
      "ă": 145,
      "ą": 146,
      "ć": 147,
      "ĉ": 148,
      "ċ": 149,
      "č": 150,
      "ď": 151,
      "đ": 152,
      "ē": 153,
      "ĕ": 154,
      "ė": 155,
      "ę": 156,
      "ě": 157,
      "ĝ": 158,
      "ğ": 159,
      "ġ": 160,
      "ģ": 161,
      "ĥ": 162,
      "ħ": 163,
      "ĩ": 164,
      "ī": 165,
      "ĭ": 166,
      "į": 167,
      "ı": 168,
      "ĵ": 169,
      "ķ": 170,
      "ĸ": 171,
      "ĺ": 172,
      "ļ": 173,
      "ľ": 174,
      "ł": 175,
      "ń": 176,
      "ņ": 177,
      "ň": 178,
      "ŋ": 179,
      "ō": 180,
      "ŏ": 181,
      "ő": 182,
      "œ": 183,
      "ŕ": 184,
      "ŗ": 185,
      "ř": 186,
      "ś": 187,
      "ŝ": 188,
      "ş": 189,
      "š": 190,
      "ţ": 191,
      "ť": 192,
      "ŧ": 193,
      "ũ": 194,
      "ū": 195,
      "ŭ": 196,
      "ů": 197,
      "ű": 198,
      "ų": 199,
      "ŵ": 200,
      "ŷ": 201,
      "ź": 202,
      "ż": 203,
      "ž": 204,
      "ƀ": 205,
      "ƃ": 206,
      "ƅ": 207,
      "ƈ": 208,
      "ƌ": 209,
      "ƍ": 210,
      "ƒ": 211,
      "ƕ": 212,
      "ƙ": 213,
      "ƚ": 214,
      "ƛ": 215,
      "ƞ": 216,
      "ơ": 217,
      "ƣ": 218,
      "ƥ": 219,
      "ƨ": 220,
      "ƫ": 221,
      "ƭ": 222,
      "ư": 223,
      "ƴ": 224,
      "ƶ": 225,
      "ƹ": 226,
      "ƺ": 227,
      "ƽ": 228,
      "ƿ": 229,
      "ǎ": 230,
      "ǐ": 231,
      "ǒ": 232,
      "ǔ": 233,
      "ǖ": 234,
      "ǘ": 235,
      "ǚ": 236,
      "ǜ": 237,
      "ǝ": 238,
      "ǟ": 239,
      "ǡ": 240,
      "ǣ": 241,
      "ǥ": 242,
      "ǧ": 243,
      "ǩ": 244,
      "ǫ": 245,
      "ǭ": 246,
      "ǯ": 247,
      "ǰ": 248,
      "ǵ": 249,
      "ǹ": 250,
      "ǻ": 251,
      "ǽ": 252,
      "ǿ": 253,
      "ȁ": 254,
      "ȃ": 255,
      "ȅ": 256,
      "ȇ": 257,
      "ȉ": 258,
      "ȋ": 259,
      "ȍ": 260,
      "ȏ": 261,
      "ȑ": 262,
      "ȓ": 263,
      "ȕ": 264,
      "ȗ": 265,
      "ș": 266,
      "ț": 267,
      "ȝ": 268,
      "ȟ": 269,
      "ȡ": 270,
      "ȣ": 271,
      "ȥ": 272,
      "ȧ": 273,
      "ȩ": 274,
      "ȫ": 275,
      "ȭ": 276,
      "ȯ": 277,
      "ȱ": 278,
      "ȳ": 279,
      "ȴ": 280,
      "ȵ": 281,
      "ȶ": 282,
      "ȷ": 283,
      "ȼ": 284,
      "ȿ": 285,
      "ɀ": 286,
      "ɂ": 287,
      "ɇ": 288,
      "ɉ": 289,
      "ɋ": 290,
      "ɍ": 291,
      "ɏ": 292,
      "ɐ": 293,
      "ɑ": 294,
      "ɒ": 295,
      "ɓ": 296,
      "ɔ": 297,
      "ɕ": 298,
      "ɖ": 299,
      "ɗ": 300,
      "ɘ": 301,
      "ə": 302,
      "ɚ": 303,
      "ɛ": 304,
      "ɜ": 305,
      "ɝ": 306,
      "ɟ": 307,
      "ɠ": 308,
      "ɡ": 309,
      "ɢ": 310,
      "ɣ": 311,
      "ɤ": 312,
      "ɥ": 313,
      "ɦ": 314,
      "ɧ": 315,
      "ɨ": 316,
      "ɪ": 317,
      "ɫ": 318,
      "ɬ": 319,
      "ɭ": 320,
      "ɮ": 321,
      "ɯ": 322,
      "ɰ": 323,
      "ɱ": 324,
      "ɲ": 325,
      "ɳ": 326,
      "ɴ": 327,
      "ɵ": 328,
      "ɶ": 329,
      "ɸ": 330,
      "ɹ": 331,
      "ɺ": 332,
      "ɻ": 333,
      "ɼ": 334,
      "ɽ": 335,
      "ɾ": 336,
      "ʀ": 337,
      "ʁ": 338,
      "ʂ": 339,
      "ʃ": 340,
      "ʄ": 341,
      "ʈ": 342,
      "ʉ": 343,
      "ʊ": 344,
      "ʋ": 345,
      "ʌ": 346,
      "ʍ": 347,
      "ʎ": 348,
      "ʏ": 349,
      "ʐ": 350,
      "ʑ": 351,
      "ʒ": 352,
      "ʕ": 353,
      "ʘ": 354,
      "ʙ": 355,
      "ʛ": 356,
      "ʜ": 357,
      "ʝ": 358,
      "ʞ": 359,
      "ʟ": 360,
      "ʠ": 361,
      "ʢ": 362,
      "ʣ": 363,
      "ʤ": 364,
      "ʥ": 365,
      "ʦ": 366,
      "ʧ": 367,
      "ʨ": 368,
      "ʹ": 369,
      "ʺ": 370,
      "ʻ": 371,
      "ʼ": 372,
      "ʽ": 373,
      "ʾ": 374,
      "ʿ": 375,
      "ˀ": 376,
      "ˁ": 377,
      "˂": 378,
      "˃": 379,
      "ˆ": 380,
      "ˇ": 381,
      "ˈ": 382,
      "ˉ": 383,
      "ˊ": 384,
      "ˋ": 385,
      "ˌ": 386,
      "ː": 387,
      "ˑ": 388,
      "˒": 389,
      "˓": 390,
      "˗": 391,
      "˞": 392,
      "˥": 393,
      "˦": 394,
      "˧": 395,
      "˨": 396,
      "˩": 397,
      "ˮ": 398,
      "˹": 399,
      "˺": 400,
      "̇": 401,
      "ͱ": 402,
      "ͳ": 403,
      "͵": 404,
      "ͷ": 405,
      "ͻ": 406,
      "ΐ": 407,
      "ά": 408,
      "έ": 409,
      "ή": 410,
      "ί": 411,
      "ΰ": 412,
      "α": 413,
      "β": 414,
      "γ": 415,
      "δ": 416,
      "ε": 417,
      "ζ": 418,
      "η": 419,
      "θ": 420,
      "ι": 421,
      "κ": 422,
      "λ": 423,
      "μ": 424,
      "ν": 425,
      "ξ": 426,
      "ο": 427,
      "π": 428,
      "ρ": 429,
      "ς": 430,
      "σ": 431,
      "τ": 432,
      "υ": 433,
      "φ": 434,
      "χ": 435,
      "ψ": 436,
      "ω": 437,
      "ϊ": 438,
      "ϋ": 439,
      "ό": 440,
      "ύ": 441,
      "ώ": 442,
      "ϗ": 443,
      "ϙ": 444,
      "ϛ": 445,
      "ϝ": 446,
      "ϟ": 447,
      "ϡ": 448,
      "ϥ": 449,
      "ϩ": 450,
      "ϫ": 451,
      "ϯ": 452,
      "ϸ": 453,
      "ϻ": 454,
      "а": 455,
      "б": 456,
      "в": 457,
      "г": 458,
      "д": 459,
      "е": 460,
      "ж": 461,
      "з": 462,
      "и": 463,
      "й": 464,
      "к": 465,
      "л": 466,
      "м": 467,
      "н": 468,
      "о": 469,
      "п": 470,
      "р": 471,
      "с": 472,
      "т": 473,
      "у": 474,
      "ф": 475,
      "х": 476,
      "ц": 477,
      "ч": 478,
      "ш": 479,
      "щ": 480,
      "ъ": 481,
      "ы": 482,
      "ь": 483,
      "э": 484,
      "ю": 485,
      "я": 486,
      "ѐ": 487,
      "ё": 488,
      "ђ": 489,
      "ѓ": 490,
      "є": 491,
      "ѕ": 492,
      "і": 493,
      "ї": 494,
      "ј": 495,
      "љ": 496,
      "њ": 497,
      "ћ": 498,
      "ќ": 499,
      "ѝ": 500,
      "ў": 501,
      "џ": 502,
      "ѡ": 503,
      "ѣ": 504,
      "ѥ": 505,
      "ѧ": 506,
      "ѩ": 507,
      "ѫ": 508,
      "ѭ": 509,
      "ѯ": 510,
      "ѱ": 511,
      "ѳ": 512,
      "ѵ": 513,
      "ѷ": 514,
      "ѹ": 515,
      "ѻ": 516,
      "ѽ": 517,
      "ѿ": 518,
      "ҁ": 519,
      "҂": 520,
      "ҋ": 521,
      "ҍ": 522,
      "ҏ": 523,
      "ґ": 524,
      "ғ": 525,
      "ҕ": 526,
      "җ": 527,
      "ҙ": 528,
      "қ": 529,
      "ҝ": 530,
      "ҟ": 531,
      "ҡ": 532,
      "ң": 533,
      "ҥ": 534,
      "ҧ": 535,
      "ҩ": 536,
      "ҫ": 537,
      "ҭ": 538,
      "ү": 539,
      "ұ": 540,
      "ҳ": 541,
      "ҵ": 542,
      "ҷ": 543,
      "ҹ": 544,
      "һ": 545,
      "ҽ": 546,
      "ҿ": 547,
      "ӂ": 548,
      "ӄ": 549,
      "ӆ": 550,
      "ӈ": 551,
      "ӊ": 552,
      "ӌ": 553,
      "ӎ": 554,
      "ӏ": 555,
      "ӑ": 556,
      "ӓ": 557,
      "ӕ": 558,
      "ӗ": 559,
      "ә": 560,
      "ӛ": 561,
      "ӝ": 562,
      "ӟ": 563,
      "ӡ": 564,
      "ӣ": 565,
      "ӥ": 566,
      "ӧ": 567,
      "ө": 568,
      "ӫ": 569,
      "ӭ": 570,
      "ӯ": 571,
      "ӱ": 572,
      "ӳ": 573,
      "ӵ": 574,
      "ӷ": 575,
      "ӹ": 576,
      "ӻ": 577,
      "ӽ": 578,
      "ӿ": 579,
      "ԁ": 580,
      "ԃ": 581,
      "ԅ": 582,
      "ԇ": 583,
      "ԉ": 584,
      "ԋ": 585,
      "ԍ": 586,
      "ԏ": 587,
      "ԑ": 588,
      "ԓ": 589,
      "ԕ": 590,
      "ԗ": 591,
      "ԙ": 592,
      "ԛ": 593,
      "ԝ": 594,
      "ԟ": 595,
      "ԡ": 596,
      "ԣ": 597,
      "ԥ": 598,
      "ԧ": 599,
      "ԩ": 600,
      "ԫ": 601,
      "ԭ": 602,
      "ԯ": 603,
      "՚": 604,
      "՛": 605,
      "՜": 606,
      "՝": 607,
      "՞": 608,
      "ա": 609,
      "բ": 610,
      "գ": 611,
      "դ": 612,
      "ե": 613,
      "զ": 614,
      "է": 615,
      "ը": 616,
      "թ": 617,
      "ժ": 618,
      "ի": 619,
      "լ": 620,
      "խ": 621,
      "ծ": 622,
      "կ": 623,
      "հ": 624,
      "ձ": 625,
      "ղ": 626,
      "ճ": 627,
      "մ": 628,
      "յ": 629,
      "ն": 630,
      "շ": 631,
      "ո": 632,
      "չ": 633,
      "պ": 634,
      "ջ": 635,
      "ռ": 636,
      "ս": 637,
      "վ": 638,
      "տ": 639,
      "ր": 640,
      "ց": 641,
      "ւ": 642,
      "փ": 643,
      "ք": 644,
      "օ": 645,
      "ֆ": 646,
      "։": 647,
      "֎": 648,
      "־": 649,
      "׀": 650,
      "׃": 651,
      "ו": 652,
      "י": 653,
      "ן": 654,
      "צ": 655,
      "׳": 656,
      "״": 657,
      "،": 658,
      "؛": 659,
      "؟": 660,
      "ـ": 661,
      "٠": 662,
      "١": 663,
      "٢": 664,
      "٣": 665,
      "٤": 666,
      "٥": 667,
      "٦": 668,
      "٧": 669,
      "٨": 670,
      "٩": 671,
      "٪": 672,
      "٫": 673,
      "٬": 674,
      "٭": 675,
      "۔": 676,
      "۝": 677,
      "۞": 678,
      "۰": 679,
      "۱": 680,
      "۲": 681,
      "۳": 682,
      "۴": 683,
      "۵": 684,
      "۶": 685,
      "۷": 686,
      "۸": 687,
      "۹": 688,
      "܀": 689,
      "܁": 690,
      "܂": 691,
      "܃": 692,
      "܄": 693,
      "܅": 694,
      "܆": 695,
      "܇": 696,
      "܈": 697,
      "܉": 698,
      "܊": 699,
      "܋": 700,
      "܌": 701,
      "܍": 702,
      "܏": 703,
      "।": 704,
      "॥": 705,
      "०": 706,
      "१": 707,
      "२": 708,
      "३": 709,
      "४": 710,
      "५": 711,
      "६": 712,
      "७": 713,
      "८": 714,
      "९": 715,
      "॰": 716,
      "০": 717,
      "১": 718,
      "২": 719,
      "৩": 720,
      "৪": 721,
      "৫": 722,
      "৬": 723,
      "৭": 724,
      "৮": 725,
      "৯": 726,
      "৲": 727,
      "৳": 728,
      "੦": 729,
      "੧": 730,
      "੨": 731,
      "੩": 732,
      "੪": 733,
      "੫": 734,
      "੬": 735,
      "੭": 736,
      "੮": 737,
      "੯": 738,
      "૦": 739,
      "૧": 740,
      "૨": 741,
      "૩": 742,
      "૪": 743,
      "૫": 744,
      "૬": 745,
      "૭": 746,
      "૮": 747,
      "૯": 748,
      "୦": 749,
      "୧": 750,
      "୨": 751,
      "୩": 752,
      "୪": 753,
      "୫": 754,
      "୬": 755,
      "୭": 756,
      "୮": 757,
      "୯": 758,
      "௦": 759,
      "௧": 760,
      "௨": 761,
      "௩": 762,
      "௪": 763,
      "௫": 764,
      "௬": 765,
      "௭": 766,
      "௮": 767,
      "௯": 768,
      "௰": 769,
      "௱": 770,
      "௲": 771,
      "౦": 772,
      "౧": 773,
      "౨": 774,
      "౩": 775,
      "౪": 776,
      "౫": 777,
      "౬": 778,
      "౭": 779,
      "౮": 780,
      "౯": 781,
      "೦": 782,
      "೧": 783,
      "೨": 784,
      "೩": 785,
      "೪": 786,
      "೫": 787,
      "೬": 788,
      "೭": 789,
      "೮": 790,
      "೯": 791,
      "൦": 792,
      "൧": 793,
      "൨": 794,
      "൩": 795,
      "൪": 796,
      "൫": 797,
      "൬": 798,
      "൭": 799,
      "൮": 800,
      "൯": 801,
      "฿": 802,
      "๐": 803,
      "๑": 804,
      "๒": 805,
      "๓": 806,
      "๔": 807,
      "๕": 808,
      "๖": 809,
      "๗": 810,
      "๘": 811,
      "๙": 812,
      "໐": 813,
      "໑": 814,
      "໒": 815,
      "໓": 816,
      "໔": 817,
      "໕": 818,
      "໖": 819,
      "໗": 820,
      "໘": 821,
      "໙": 822,
      "་": 823,
      "།": 824,
      "༏": 825,
      "༠": 826,
      "༡": 827,
      "༢": 828,
      "༣": 829,
      "༤": 830,
      "༥": 831,
      "༦": 832,
      "༧": 833,
      "༨": 834,
      "༩": 835,
      "၀": 836,
      "၁": 837,
      "၂": 838,
      "၃": 839,
      "၄": 840,
      "၅": 841,
      "၆": 842,
      "၇": 843,
      "၈": 844,
      "၉": 845,
      "၊": 846,
      "ა": 847,
      "ბ": 848,
      "გ": 849,
      "დ": 850,
      "ე": 851,
      "ვ": 852,
      "ზ": 853,
      "თ": 854,
      "ი": 855,
      "კ": 856,
      "ლ": 857,
      "მ": 858,
      "ნ": 859,
      "ო": 860,
      "პ": 861,
      "ჟ": 862,
      "რ": 863,
      "ს": 864,
      "ტ": 865,
      "უ": 866,
      "ფ": 867,
      "ქ": 868,
      "ღ": 869,
      "ყ": 870,
      "შ": 871,
      "ჩ": 872,
      "ც": 873,
      "ძ": 874,
      "წ": 875,
      "ჭ": 876,
      "ხ": 877,
      "ჯ": 878,
      "ჰ": 879,
      "ჱ": 880,
      "ჲ": 881,
      "ჳ": 882,
      "ჴ": 883,
      "ჵ": 884,
      "ჶ": 885,
      "ჷ": 886,
      "ჸ": 887,
      "ჹ": 888,
      "ჺ": 889,
      "჻": 890,
      "ჾ": 891,
      "ჿ": 892,
      "፠": 893,
      "፡": 894,
      "።": 895,
      "፣": 896,
      "፤": 897,
      "፥": 898,
      "፦": 899,
      "፧": 900,
      "፨": 901,
      "፩": 902,
      "፪": 903,
      "፫": 904,
      "፬": 905,
      "፭": 906,
      "፮": 907,
      "፯": 908,
      "፰": 909,
      "፱": 910,
      "፲": 911,
      "፳": 912,
      "፴": 913,
      "፵": 914,
      "፶": 915,
      "፷": 916,
      "፸": 917,
      "፹": 918,
      "፺": 919,
      "፻": 920,
      "፼": 921,
      "᎐": 922,
      "᎑": 923,
      "᎒": 924,
      "᎓": 925,
      "᎔": 926,
      "᎕": 927,
      "᎖": 928,
      "᎗": 929,
      "᎘": 930,
      "᎙": 931,
      "ᏹ": 932,
      "ᏻ": 933,
      "᛫": 934,
      "᛬": 935,
      "᛭": 936,
      "ᛮ": 937,
      "ᛯ": 938,
      "ᛰ": 939,
      "។": 940,
      "៛": 941,
      "០": 942,
      "១": 943,
      "២": 944,
      "៣": 945,
      "៤": 946,
      "៥": 947,
      "៦": 948,
      "៧": 949,
      "៨": 950,
      "៩": 951,
      "᠁": 952,
      "᠂": 953,
      "᠃": 954,
      "᠊": 955,
      "᠎": 956,
      "᠐": 957,
      "᠑": 958,
      "᠒": 959,
      "᠓": 960,
      "᠔": 961,
      "᠕": 962,
      "᠖": 963,
      "᠗": 964,
      "᠘": 965,
      "᠙": 966,
      "᥆": 967,
      "᥇": 968,
      "᥈": 969,
      "᥉": 970,
      "᥊": 971,
      "᥋": 972,
      "᥌": 973,
      "᥍": 974,
      "᥎": 975,
      "᥏": 976,
      "᫈": 977,
      "᭐": 978,
      "᭑": 979,
      "᭒": 980,
      "᭓": 981,
      "᭔": 982,
      "᭕": 983,
      "᭖": 984,
      "᭗": 985,
      "᭘": 986,
      "᭙": 987,
      "᮰": 988,
      "᮱": 989,
      "᮲": 990,
      "᮳": 991,
      "᮴": 992,
      "᮵": 993,
      "᮶": 994,
      "᮷": 995,
      "᮸": 996,
      "᮹": 997,
      "᱀": 998,
      "᱁": 999,
      "᱂": 1000,
      "᱃": 1001,
      "᱄": 1002,
      "᱅": 1003,
      "᱆": 1004,
      "᱇": 1005,
      "᱈": 1006,
      "᱉": 1007,
      "᱐": 1008,
      "᱑": 1009,
      "᱒": 1010,
      "᱓": 1011,
      "᱔": 1012,
      "᱕": 1013,
      "᱖": 1014,
      "᱗": 1015,
      "᱘": 1016,
      "᱙": 1017,
      "ᴀ": 1018,
      "ᴅ": 1019,
      "ᴇ": 1020,
      "ᴉ": 1021,
      "ᴧ": 1022,
      "ᵬ": 1023,
      "ᵭ": 1024,
      "ᵮ": 1025,
      "ᵯ": 1026,
      "ᵰ": 1027,
      "ᵲ": 1028,
      "ᵳ": 1029,
      "ᵴ": 1030,
      "ᵵ": 1031,
      "ᵶ": 1032,
      "ᵻ": 1033,
      "ᵽ": 1034,
      "ᵾ": 1035,
      "ᵿ": 1036,
      "ᶀ": 1037,
      "ᶁ": 1038,
      "ᶂ": 1039,
      "ᶃ": 1040,
      "ᶄ": 1041,
      "ᶅ": 1042,
      "ᶆ": 1043,
      "ᶇ": 1044,
      "ᶈ": 1045,
      "ᶉ": 1046,
      "ᶊ": 1047,
      "ᶋ": 1048,
      "ᶌ": 1049,
      "ᶍ": 1050,
      "ᶎ": 1051,
      "ᶏ": 1052,
      "ᶐ": 1053,
      "ᶑ": 1054,
      "ᶒ": 1055,
      "ᶓ": 1056,
      "ᶔ": 1057,
      "ᶕ": 1058,
      "ᶖ": 1059,
      "ᶘ": 1060,
      "ᶙ": 1061,
      "ᶚ": 1062,
      "ḁ": 1063,
      "ḃ": 1064,
      "ḅ": 1065,
      "ḇ": 1066,
      "ḉ": 1067,
      "ḋ": 1068,
      "ḍ": 1069,
      "ḏ": 1070,
      "ḑ": 1071,
      "ḓ": 1072,
      "ḕ": 1073,
      "ḗ": 1074,
      "ḙ": 1075,
      "ḛ": 1076,
      "ḝ": 1077,
      "ḟ": 1078,
      "ḡ": 1079,
      "ḣ": 1080,
      "ḥ": 1081,
      "ḧ": 1082,
      "ḩ": 1083,
      "ḫ": 1084,
      "ḭ": 1085,
      "ḯ": 1086,
      "ḱ": 1087,
      "ḳ": 1088,
      "ḵ": 1089,
      "ḷ": 1090,
      "ḹ": 1091,
      "ḻ": 1092,
      "ḽ": 1093,
      "ḿ": 1094,
      "ṁ": 1095,
      "ṃ": 1096,
      "ṅ": 1097,
      "ṇ": 1098,
      "ṉ": 1099,
      "ṋ": 1100,
      "ṍ": 1101,
      "ṏ": 1102,
      "ṑ": 1103,
      "ṓ": 1104,
      "ṕ": 1105,
      "ṗ": 1106,
      "ṙ": 1107,
      "ṛ": 1108,
      "ṝ": 1109,
      "ṟ": 1110,
      "ṡ": 1111,
      "ṣ": 1112,
      "ṥ": 1113,
      "ṧ": 1114,
      "ṩ": 1115,
      "ṫ": 1116,
      "ṭ": 1117,
      "ṯ": 1118,
      "ṱ": 1119,
      "ṳ": 1120,
      "ṵ": 1121,
      "ṷ": 1122,
      "ṹ": 1123,
      "ṻ": 1124,
      "ṽ": 1125,
      "ṿ": 1126,
      "ẁ": 1127,
      "ẃ": 1128,
      "ẅ": 1129,
      "ẇ": 1130,
      "ẉ": 1131,
      "ẋ": 1132,
      "ẍ": 1133,
      "ẏ": 1134,
      "ẑ": 1135,
      "ẓ": 1136,
      "ẕ": 1137,
      "ẖ": 1138,
      "ẗ": 1139,
      "ẘ": 1140,
      "ẙ": 1141,
      "ạ": 1142,
      "ả": 1143,
      "ấ": 1144,
      "ầ": 1145,
      "ẩ": 1146,
      "ẫ": 1147,
      "ậ": 1148,
      "ắ": 1149,
      "ằ": 1150,
      "ẳ": 1151,
      "ẵ": 1152,
      "ặ": 1153,
      "ẹ": 1154,
      "ẻ": 1155,
      "ẽ": 1156,
      "ế": 1157,
      "ề": 1158,
      "ể": 1159,
      "ễ": 1160,
      "ệ": 1161,
      "ỉ": 1162,
      "ị": 1163,
      "ọ": 1164,
      "ỏ": 1165,
      "ố": 1166,
      "ồ": 1167,
      "ổ": 1168,
      "ỗ": 1169,
      "ộ": 1170,
      "ớ": 1171,
      "ờ": 1172,
      "ở": 1173,
      "ỡ": 1174,
      "ợ": 1175,
      "ụ": 1176,
      "ủ": 1177,
      "ứ": 1178,
      "ừ": 1179,
      "ử": 1180,
      "ữ": 1181,
      "ự": 1182,
      "ỳ": 1183,
      "ỵ": 1184,
      "ỷ": 1185,
      "ỹ": 1186,
      "ἀ": 1187,
      "ἁ": 1188,
      "ἂ": 1189,
      "ἃ": 1190,
      "ἄ": 1191,
      "ἅ": 1192,
      "ἆ": 1193,
      "ἇ": 1194,
      "ἐ": 1195,
      "ἑ": 1196,
      "ἒ": 1197,
      "ἔ": 1198,
      "ἕ": 1199,
      "ἠ": 1200,
      "ἡ": 1201,
      "ἢ": 1202,
      "ἣ": 1203,
      "ἤ": 1204,
      "ἥ": 1205,
      "ἦ": 1206,
      "ἧ": 1207,
      "ἰ": 1208,
      "ἱ": 1209,
      "ἴ": 1210,
      "ἵ": 1211,
      "ἶ": 1212,
      "ἷ": 1213,
      "ὀ": 1214,
      "ὁ": 1215,
      "ὂ": 1216,
      "ὃ": 1217,
      "ὄ": 1218,
      "ὅ": 1219,
      "ὐ": 1220,
      "ὑ": 1221,
      "ὔ": 1222,
      "ὕ": 1223,
      "ὖ": 1224,
      "ὗ": 1225,
      "ὠ": 1226,
      "ὡ": 1227,
      "ὣ": 1228,
      "ὤ": 1229,
      "ὥ": 1230,
      "ὦ": 1231,
      "ὧ": 1232,
      "ὰ": 1233,
      "ὲ": 1234,
      "ὴ": 1235,
      "ὶ": 1236,
      "ὸ": 1237,
      "ὺ": 1238,
      "ὼ": 1239,
      "ᾀ": 1240,
      "ᾅ": 1241,
      "ᾆ": 1242,
      "ᾑ": 1243,
      "ᾔ": 1244,
      "ᾕ": 1245,
      "ᾖ": 1246,
      "ᾗ": 1247,
      "ᾠ": 1248,
      "ᾤ": 1249,
      "ᾧ": 1250,
      "ᾰ": 1251,
      "ᾱ": 1252,
      "ᾳ": 1253,
      "ᾴ": 1254,
      "ᾶ": 1255,
      "ᾷ": 1256,
      "ῂ": 1257,
      "ῃ": 1258,
      "ῄ": 1259,
      "ῆ": 1260,
      "ῇ": 1261,
      "ῐ": 1262,
      "ῑ": 1263,
      "ῖ": 1264,
      "ῠ": 1265,
      "ῡ": 1266,
      "ῤ": 1267,
      "ῥ": 1268,
      "ῦ": 1269,
      "ῳ": 1270,
      "ῴ": 1271,
      "ῶ": 1272,
      "ῷ": 1273,
      "​": 1274,
      "‌": 1275,
      "‍": 1276,
      "‎": 1277,
      "‏": 1278,
      "‐": 1279,
      "‒": 1280,
      "–": 1281,
      "—": 1282,
      "―": 1283,
      "‖": 1284,
      "‘": 1285,
      "’": 1286,
      "‚": 1287,
      "‛": 1288,
      "“": 1289,
      "”": 1290,
      "„": 1291,
      "‟": 1292,
      "†": 1293,
      "‡": 1294,
      "•": 1295,
      "‧": 1296,
      "‪": 1297,
      "‫": 1298,
      "‬": 1299,
      "‭": 1300,
      "‰": 1301,
      "‱": 1302,
      "′": 1303,
      "‹": 1304,
      "›": 1305,
      "※": 1306,
      "‿": 1307,
      "⁄": 1308,
      "⁊": 1309,
      "⁎": 1310,
      "⁓": 1311,
      "⁠": 1312,
      "⁡": 1313,
      "₠": 1314,
      "₡": 1315,
      "₣": 1316,
      "₤": 1317,
      "₥": 1318,
      "₦": 1319,
      "₧": 1320,
      "₩": 1321,
      "₪": 1322,
      "₫": 1323,
      "€": 1324,
      "₮": 1325,
      "₯": 1326,
      "₱": 1327,
      "₲": 1328,
      "₴": 1329,
      "₵": 1330,
      "₷": 1331,
      "₸": 1332,
      "₹": 1333,
      "₺": 1334,
      "₼": 1335,
      "₽": 1336,
      "₾": 1337,
      "₿": 1338,
      "℗": 1339,
      "℟": 1340,
      "℣": 1341,
      "℮": 1342,
      "ↄ": 1343,
      "←": 1344,
      "↑": 1345,
      "→": 1346,
      "↓": 1347,
      "↔": 1348,
      "↖": 1349,
      "↗": 1350,
      "↘": 1351,
      "↙": 1352,
      "↛": 1353,
      "↠": 1354,
      "↦": 1355,
      "↨": 1356,
      "↪": 1357,
      "↳": 1358,
      "↵": 1359,
      "↹": 1360,
      "⇄": 1361,
      "⇆": 1362,
      "⇋": 1363,
      "⇌": 1364,
      "⇒": 1365,
      "⇔": 1366,
      "⇧": 1367,
      "⇨": 1368,
      "⇭": 1369,
      "∀": 1370,
      "∂": 1371,
      "∃": 1372,
      "∅": 1373,
      "∆": 1374,
      "∇": 1375,
      "∈": 1376,
      "∉": 1377,
      "∊": 1378,
      "∋": 1379,
      "∏": 1380,
      "∑": 1381,
      "−": 1382,
      "∓": 1383,
      "∕": 1384,
      "∗": 1385,
      "∘": 1386,
      "∙": 1387,
      "√": 1388,
      "∝": 1389,
      "∞": 1390,
      "∟": 1391,
      "∠": 1392,
      "∣": 1393,
      "∥": 1394,
      "∧": 1395,
      "∨": 1396,
      "∩": 1397,
      "∪": 1398,
      "∫": 1399,
      "∴": 1400,
      "∶": 1401,
      "∼": 1402,
      "∽": 1403,
      "≃": 1404,
      "≅": 1405,
      "≇": 1406,
      "≈": 1407,
      "≌": 1408,
      "≒": 1409,
      "≙": 1410,
      "≝": 1411,
      "≠": 1412,
      "≡": 1413,
      "≢": 1414,
      "≤": 1415,
      "≥": 1416,
      "≧": 1417,
      "≩": 1418,
      "≪": 1419,
      "≫": 1420,
      "≮": 1421,
      "≯": 1422,
      "≰": 1423,
      "≱": 1424,
      "≲": 1425,
      "≳": 1426,
      "≵": 1427,
      "⊂": 1428,
      "⊃": 1429,
      "⊆": 1430,
      "⊇": 1431,
      "⊊": 1432,
      "⊋": 1433,
      "⊎": 1434,
      "⊓": 1435,
      "⊕": 1436,
      "⊖": 1437,
      "⊗": 1438,
      "⊙": 1439,
      "⊛": 1440,
      "⊞": 1441,
      "⊤": 1442,
      "⊥": 1443,
      "⋅": 1444,
      "⋆": 1445,
      "⋗": 1446,
      "⋙": 1447,
      "⋚": 1448,
      "⋝": 1449,
      "⋧": 1450,
      "⋮": 1451,
      "⋯": 1452,
      "⌀": 1453,
      "⌈": 1454,
      "⌉": 1455,
      "⌊": 1456,
      "⌋": 1457,
      "⌐": 1458,
      "⌒": 1459,
      "⌘": 1460,
      "⌠": 1461,
      "⌡": 1462,
      "⌥": 1463,
      "⍄": 1464,
      "⍝": 1465,
      "⍩": 1466,
      "⍳": 1467,
      "⍽": 1468,
      "⎯": 1469,
      "␠": 1470,
      "␢": 1471,
      "␣": 1472,
      "─": 1473,
      "│": 1474,
      "┌": 1475,
      "┐": 1476,
      "└": 1477,
      "┘": 1478,
      "├": 1479,
      "┤": 1480,
      "┬": 1481,
      "┴": 1482,
      "┼": 1483,
      "═": 1484,
      "║": 1485,
      "╒": 1486,
      "╓": 1487,
      "╔": 1488,
      "╕": 1489,
      "╖": 1490,
      "╗": 1491,
      "╙": 1492,
      "╚": 1493,
      "╛": 1494,
      "╜": 1495,
      "╝": 1496,
      "╞": 1497,
      "╟": 1498,
      "╠": 1499,
      "╡": 1500,
      "╢": 1501,
      "╣": 1502,
      "╤": 1503,
      "╥": 1504,
      "╦": 1505,
      "╧": 1506,
      "╨": 1507,
      "╩": 1508,
      "╪": 1509,
      "╫": 1510,
      "╬": 1511,
      "╱": 1512,
      "╲": 1513,
      "▀": 1514,
      "▄": 1515,
      "█": 1516,
      "▌": 1517,
      "▐": 1518,
      "░": 1519,
      "▒": 1520,
      "▓": 1521,
      "■": 1522,
      "□": 1523,
      "▪": 1524,
      "▬": 1525,
      "▮": 1526,
      "▲": 1527,
      "△": 1528,
      "▶": 1529,
      "►": 1530,
      "▼": 1531,
      "◁": 1532,
      "◄": 1533,
      "◆": 1534,
      "◇": 1535,
      "◉": 1536,
      "◊": 1537,
      "○": 1538,
      "◌": 1539,
      "◎": 1540,
      "●": 1541,
      "◦": 1542,
      "☀": 1543,
      "☂": 1544,
      "☃": 1545,
      "★": 1546,
      "☆": 1547,
      "☉": 1548,
      "☊": 1549,
      "☎": 1550,
      "☚": 1551,
      "☛": 1552,
      "☜": 1553,
      "☝": 1554,
      "☞": 1555,
      "☟": 1556,
      "☠": 1557,
      "☡": 1558,
      "☢": 1559,
      "☣": 1560,
      "☤": 1561,
      "☧": 1562,
      "☪": 1563,
      "☭": 1564,
      "☯": 1565,
      "☹": 1566,
      "☺": 1567,
      "☻": 1568,
      "☼": 1569,
      "☽": 1570,
      "☾": 1571,
      "☿": 1572,
      "♀": 1573,
      "♁": 1574,
      "♂": 1575,
      "♃": 1576,
      "♄": 1577,
      "♆": 1578,
      "♇": 1579,
      "♈": 1580,
      "♉": 1581,
      "♊": 1582,
      "♋": 1583,
      "♌": 1584,
      "♍": 1585,
      "♎": 1586,
      "♏": 1587,
      "♐": 1588,
      "♑": 1589,
      "♒": 1590,
      "♓": 1591,
      "♔": 1592,
      "♕": 1593,
      "♖": 1594,
      "♗": 1595,
      "♘": 1596,
      "♙": 1597,
      "♚": 1598,
      "♛": 1599,
      "♜": 1600,
      "♝": 1601,
      "♞": 1602,
      "♟": 1603,
      "♠": 1604,
      "♡": 1605,
      "♣": 1606,
      "♥": 1607,
      "♦": 1608,
      "♧": 1609,
      "♨": 1610,
      "♪": 1611,
      "♫": 1612,
      "♭": 1613,
      "♯": 1614,
      "♺": 1615,
      "⚌": 1616,
      "⚍": 1617,
      "⚎": 1618,
      "⚏": 1619,
      "⚔": 1620,
      "⚠": 1621,
      "⚡": 1622,
      "⚭": 1623,
      "⚳": 1624,
      "⚴": 1625,
      "⚵": 1626,
      "⚹": 1627,
      "⛢": 1628,
      "✈": 1629,
      "✌": 1630,
      "✓": 1631,
      "✔": 1632,
      "✗": 1633,
      "✝": 1634,
      "✡": 1635,
      "✢": 1636,
      "✯": 1637,
      "✿": 1638,
      "❗": 1639,
      "❤": 1640,
      "➀": 1641,
      "➁": 1642,
      "➂": 1643,
      "➃": 1644,
      "➄": 1645,
      "⟂": 1646,
      "⟨": 1647,
      "⟩": 1648,
      "⟹": 1649,
      "⟺": 1650,
      "⠀": 1651,
      "⠄": 1652,
      "⠋": 1653,
      "⠒": 1654,
      "⠺": 1655,
      "⠾": 1656,
      "⥸": 1657,
      "⦁": 1658,
      "⦔": 1659,
      "⦕": 1660,
      "⧁": 1661,
      "⨎": 1662,
      "⨯": 1663,
      "⩺": 1664,
      "⩼": 1665,
      "⩾": 1666,
      "⪀": 1667,
      "⪂": 1668,
      "⪄": 1669,
      "⪆": 1670,
      "⪈": 1671,
      "⪊": 1672,
      "⪎": 1673,
      "⪖": 1674,
      "⪘": 1675,
      "⪚": 1676,
      "⪜": 1677,
      "⪞": 1678,
      "⪠": 1679,
      "⪢": 1680,
      "⪧": 1681,
      "⪩": 1682,
      "⫸": 1683,
      "⫺": 1684,
      "⬇": 1685,
      "⯰": 1686,
      "ⰰ": 1687,
      "ⰱ": 1688,
      "ⰲ": 1689,
      "ⰳ": 1690,
      "ⰴ": 1691,
      "ⰵ": 1692,
      "ⰶ": 1693,
      "ⰷ": 1694,
      "ⰸ": 1695,
      "ⰹ": 1696,
      "ⰺ": 1697,
      "ⰻ": 1698,
      "ⰼ": 1699,
      "ⰽ": 1700,
      "ⰾ": 1701,
      "ⰿ": 1702,
      "ⱀ": 1703,
      "ⱁ": 1704,
      "ⱂ": 1705,
      "ⱃ": 1706,
      "ⱄ": 1707,
      "ⱅ": 1708,
      "ⱆ": 1709,
      "ⱇ": 1710,
      "ⱈ": 1711,
      "ⱉ": 1712,
      "ⱋ": 1713,
      "ⱌ": 1714,
      "ⱍ": 1715,
      "ⱎ": 1716,
      "ⱏ": 1717,
      "ⱐ": 1718,
      "ⱑ": 1719,
      "ⱓ": 1720,
      "ⱔ": 1721,
      "ⱖ": 1722,
      "ⱗ": 1723,
      "ⱘ": 1724,
      "ⱙ": 1725,
      "ⱚ": 1726,
      "ⱛ": 1727,
      "ⱡ": 1728,
      "ⱥ": 1729,
      "ⱦ": 1730,
      "ⱨ": 1731,
      "ⱪ": 1732,
      "ⱬ": 1733,
      "ⱴ": 1734,
      "ⲁ": 1735,
      "ⲃ": 1736,
      "ⲅ": 1737,
      "ⲉ": 1738,
      "ⲏ": 1739,
      "ⲓ": 1740,
      "ⲕ": 1741,
      "ⲗ": 1742,
      "ⲙ": 1743,
      "ⲛ": 1744,
      "ⲟ": 1745,
      "ⲡ": 1746,
      "ⲣ": 1747,
      "ⲥ": 1748,
      "ⲧ": 1749,
      "ⲩ": 1750,
      "ⲭ": 1751,
      "ⲱ": 1752,
      "ⴀ": 1753,
      "ⴁ": 1754,
      "ⴂ": 1755,
      "ⴃ": 1756,
      "ⴄ": 1757,
      "ⴅ": 1758,
      "ⴆ": 1759,
      "ⴇ": 1760,
      "ⴈ": 1761,
      "ⴉ": 1762,
      "ⴊ": 1763,
      "ⴋ": 1764,
      "ⴌ": 1765,
      "ⴍ": 1766,
      "ⴎ": 1767,
      "ⴏ": 1768,
      "ⴐ": 1769,
      "ⴑ": 1770,
      "ⴒ": 1771,
      "ⴓ": 1772,
      "ⴔ": 1773,
      "ⴕ": 1774,
      "ⴖ": 1775,
      "ⴗ": 1776,
      "ⴘ": 1777,
      "ⴙ": 1778,
      "ⴚ": 1779,
      "ⴛ": 1780,
      "ⴜ": 1781,
      "ⴝ": 1782,
      "ⴞ": 1783,
      "ⴟ": 1784,
      "ⴠ": 1785,
      "ⴡ": 1786,
      "ⴢ": 1787,
      "ⴣ": 1788,
      "ⴤ": 1789,
      "⸘": 1790,
      "⸮": 1791,
      "⸸": 1792,
      "⹁": 1793,
      "⺩": 1794,
      "⿱": 1795,
      "、": 1796,
      "。": 1797,
      "々": 1798,
      "〇": 1799,
      "〈": 1800,
      "〉": 1801,
      "《": 1802,
      "》": 1803,
      "「": 1804,
      "」": 1805,
      "『": 1806,
      "』": 1807,
      "【": 1808,
      "】": 1809,
      "〒": 1810,
      "〔": 1811,
      "〕": 1812,
      "〖": 1813,
      "〗": 1814,
      "〜": 1815,
      "〡": 1816,
      "〢": 1817,
      "〣": 1818,
      "〤": 1819,
      "〥": 1820,
      "〦": 1821,
      "〧": 1822,
      "〨": 1823,
      "〩": 1824,
      "ゝ": 1825,
      "ゞ": 1826,
      "・": 1827,
      "ー": 1828,
      "䷿": 1829,
      "小": 1830,
      "月": 1831,
      "ꙋ": 1832,
      "ꙑ": 1833,
      "ꙗ": 1834,
      "ꚋ": 1835,
      "ꜜ": 1836,
      "ꜣ": 1837,
      "ꜥ": 1838,
      "ꜧ": 1839,
      "ꝁ": 1840,
      "ꝃ": 1841,
      "ꝅ": 1842,
      "ꝇ": 1843,
      "ꝉ": 1844,
      "ꝋ": 1845,
      "ꝍ": 1846,
      "ꝑ": 1847,
      "ꝓ": 1848,
      "ꝕ": 1849,
      "ꝙ": 1850,
      "ꝡ": 1851,
      "ꝣ": 1852,
      "ꝥ": 1853,
      "ꝧ": 1854,
      "ꞃ": 1855,
      "ꞅ": 1856,
      "ꞌ": 1857,
      "ꞑ": 1858,
      "ꞓ": 1859,
      "꣐": 1860,
      "꣑": 1861,
      "꣒": 1862,
      "꣓": 1863,
      "꣔": 1864,
      "꣕": 1865,
      "꣖": 1866,
      "꣗": 1867,
      "꣘": 1868,
      "꣙": 1869,
      "ꭢ": 1870,
      "ꭰ": 1871,
      "ꭲ": 1872,
      "ꭳ": 1873,
      "ꭶ": 1874,
      "ꭸ": 1875,
      "ꭹ": 1876,
      "ꭺ": 1877,
      "ꭿ": 1878,
      "ꮀ": 1879,
      "ꮃ": 1880,
      "ꮉ": 1881,
      "ꮒ": 1882,
      "ꮕ": 1883,
      "ꮙ": 1884,
      "ꮝ": 1885,
      "ꮞ": 1886,
      "ꮟ": 1887,
      "ꮳ": 1888,
      "ꮵ": 1889,
      "ꮿ": 1890,
      "주": 1891,
      "﴾": 1892,
      "﴿": 1893,
      "﻿": 1894,
      "￼": 1895,
      "�": 1896,
      "𐇤": 1897,
      "𐒠": 1898,
      "𐒡": 1899,
      "𐒢": 1900,
      "𐒣": 1901,
      "𐒤": 1902,
      "𐒥": 1903,
      "𐒦": 1904,
      "𐒧": 1905,
      "𐒨": 1906,
      "𐒩": 1907,
      "𐕯": 1908,
      "𐤟": 1909,
      "𐩽": 1910,
      "𐩾": 1911,
      "𐩿": 1912,
      "𐴥": 1913,
      "𑁇": 1914,
      "𑁈": 1915,
      "𑁉": 1916,
      "𑁊": 1917,
      "𑁋": 1918,
      "𑁌": 1919,
      "𑁍": 1920,
      "𑪞": 1921,
      "𑪟": 1922,
      "𑪠": 1923,
      "𝄆": 1924,
      "𝄇": 1925,
      "𝋀": 1926,
      "𝋁": 1927,
      "𝋂": 1928,
      "𝋃": 1929,
      "𝋄": 1930,
      "𝋅": 1931,
      "𝋆": 1932,
      "𝋇": 1933,
      "𝋈": 1934,
      "𝋉": 1935,
      "𝋊": 1936,
      "𝋋": 1937,
      "𝋌": 1938,
      "𝋍": 1939,
      "𝋎": 1940,
      "𝋏": 1941,
      "𝋐": 1942,
      "𝋑": 1943,
      "𝋒": 1944,
      "𝋓": 1945,
      "🆖": 1946,
      "🇦": 1947,
      "🇧": 1948,
      "🇨": 1949,
      "🇩": 1950,
      "🇪": 1951,
      "🇫": 1952,
      "🇬": 1953,
      "🇭": 1954,
      "🇮": 1955,
      "🇯": 1956,
      "🇰": 1957,
      "🇱": 1958,
      "🇲": 1959,
      "🇳": 1960,
      "🇵": 1961,
      "🇷": 1962,
      "🇸": 1963,
      "🇹": 1964,
      "🇺": 1965,
      "🇿": 1966,
      "🌎": 1967,
      "🍒": 1968,
      "🏆": 1969,
      "🏼": 1970,
      "🐦": 1971,
      "👫": 1972,
      "👶": 1973,
      "💀": 1974,
      "💪": 1975,
      "💬": 1976,
      "🔎": 1977,
      "🔵": 1978,
      "🖉": 1979,
      "🖤": 1980,
      "😀": 1981,
      "😂": 1982,
      "😭": 1983,
      "🚲": 1984,
      "🜖": 1985,
      "🜨": 1986,
      "🤔": 1987,
      "🤦": 1988,
      "🦌": 1989,
      "🦜": 1990,
      "🧚": 1991,
      "🫙": 1992,
      "ar": 1993,
      "an": 1994,
      "er": 1995,
      "in": 1996,
      "en": 1997,
      "al": 1998,
      "il": 1999,
      "ın": 2000,
      "ir": 2001,
      "at": 2002,
      "ak": 2003,
      "de": 2004,
      "or": 2005,
      "lar": 2006,
      "da": 2007,
      "on": 2008,
      "ol": 2009,
      "el": 2010,
      "ya": 2011,
      "et": 2012,
      "as": 2013,
      "es": 2014,
      "is": 2015,
      "un": 2016,
      "ve": 2017,
      "am": 2018,
      "ay": 2019,
      "ek": 2020,
      "ler": 2021,
      "ik": 2022,
      "dı": 2023,
      "20": 2024,
      "bir": 2025,
      "ur": 2026,
      "ıl": 2027,
      "di": 2028,
      "le": 2029,
      "19": 2030,
      "ul": 2031,
      "kat": 2032,
      "ba": 2033,
      "eg": 2034,
      "im": 2035,
      "ori": 2036,
      "it": 2037,
      "iy": 2038,
      "ma": 2039,
      "kateg": 2040,
      "kategori": 2041,
      "ür": 2042,
      "em": 2043,
      "ün": 2044,
      "st": 2045,
      "ır": 2046,
      "iş": 2047,
      "i̇": 2048,
      "la": 2049,
      "li": 2050,
      "ed": 2051,
      "lı": 2052,
      "ka": 2053,
      "lan": 2054,
      "ında": 2055,
      "ta": 2056,
      "us": 2057,
      "ey": 2058,
      "sa": 2059,
      "dan": 2060,
      "ön": 2061,
      "ış": 2062,
      "ro": 2063,
      "ları": 2064,
      "ra": 2065,
      "um": 2066,
      "ör": 2067,
      "iz": 2068,
      "ha": 2069,
      "201": 2070,
      "ti": 2071,
      "ım": 2072,
      "yıl": 2073,
      "inde": 2074,
      "ara": 2075,
      "den": 2076,
      "ut": 2077,
      "ine": 2078,
      "du": 2079,
      "te": 2080,
      "üz": 2081,
      "200": 2082,
      "ık": 2083,
      "eri": 2084,
      "me": 2085,
      "bu": 2086,
      "son": 2087,
      "esi": 2088,
      "do": 2089,
      "leri": 2090,
      "ası": 2091,
      "iç": 2092,
      "ch": 2093,
      "ev": 2094,
      "ül": 2095,
      "to": 2096,
      "ile": 2097,
      "dır": 2098,
      "th": 2099,
      "man": 2100,
      "tı": 2101,
      "baş": 2102,
      "ük": 2103,
      "ce": 2104,
      "ok": 2105,
      "ist": 2106,
      "tür": 2107,
      "cu": 2108,
      "lu": 2109,
      "oy": 2110,
      "ca": 2111,
      "ini": 2112,
      "üm": 2113,
      "os": 2114,
      "ver": 2115,
      "ter": 2116,
      "len": 2117,
      "ilm": 2118,
      "kar": 2119,
      "par": 2120,
      "ını": 2121,
      "ğı": 2122,
      "dir": 2123,
      "se": 2124,
      "larak": 2125,
      "bul": 2126,
      "ge": 2127,
      "bil": 2128,
      "yap": 2129,
      "ından": 2130,
      "öl": 2131,
      "tir": 2132,
      "olarak": 2133,
      "ki": 2134,
      "gör": 2135,
      "kay": 2136,
      "om": 2137,
      "re": 2138,
      "sı": 2139,
      "uş": 2140,
      "ali": 2141,
      "bağ": 2142,
      "ına": 2143,
      "isi": 2144,
      "ça": 2145,
      "ci": 2146,
      "tar": 2147,
      "kı": 2148,
      "uz": 2149,
      "inin": 2150,
      "az": 2151,
      "ri": 2152,
      "tır": 2153,
      "00": 2154,
      "alar": 2155,
      "lam": 2156,
      "ken": 2157,
      "öz": 2158,
      "ad": 2159,
      "gel": 2160,
      "ği": 2161,
      "aki": 2162,
      "mak": 2163,
      "lik": 2164,
      "tan": 2165,
      "aş": 2166,
      "gi": 2167,
      "bol": 2168,
      "iler": 2169,
      "si": 2170,
      "sp": 2171,
      "yön": 2172,
      "199": 2173,
      "ru": 2174,
      "için": 2175,
      "san": 2176,
      "18": 2177,
      "ne": 2178,
      "ğu": 2179,
      "ih": 2180,
      "der": 2181,
      "türk": 2182,
      "mış": 2183,
      "ab": 2184,
      "yer": 2185,
      "hal": 2186,
      "üy": 2187,
      "tur": 2188,
      "the": 2189,
      "alı": 2190,
      "kur": 2191,
      "nak": 2192,
      "gen": 2193,
      "ran": 2194,
      "eş": 2195,
      "kan": 2196,
      "cı": 2197,
      "yar": 2198,
      "kon": 2199,
      "bel": 2200,
      "ayı": 2201,
      "yon": 2202,
      "ının": 2203,
      "kaynak": 2204,
      "gn": 2205,
      "bi": 2206,
      "olan": 2207,
      "gün": 2208,
      "oldu": 2209,
      "oyun": 2210,
      "doğ": 2211,
      "ke": 2212,
      "fut": 2213,
      "daki": 2214,
      "tak": 2215,
      "futbol": 2216,
      "öy": 2217,
      "cak": 2218,
      "yan": 2219,
      "kul": 2220,
      "hi": 2221,
      "of": 2222,
      "mek": 2223,
      "av": 2224,
      "tara": 2225,
      "mar": 2226,
      "let": 2227,
      "iştir": 2228,
      "taraf": 2229,
      "op": 2230,
      "10": 2231,
      "çık": 2232,
      "iye": 2233,
      "ing": 2234,
      "col": 2235,
      "tarih": 2236,
      "üş": 2237,
      "lık": 2238,
      "ov": 2239,
      "kad": 2240,
      "böl": 2241,
      "ot": 2242,
      "top": 2243,
      "198": 2244,
      "men": 2245,
      "dış": 2246,
      "align": 2247,
      "tek": 2248,
      "dev": 2249,
      "film": 2250,
      "kaynakça": 2251,
      "eler": 2252,
      "yen": 2253,
      "kal": 2254,
      "ber": 2255,
      "ck": 2256,
      "ili": 2257,
      "leş": 2258,
      "yaz": 2259,
      "),": 2260,
      "met": 2261,
      "fa": 2262,
      "tarafından": 2263,
      "ap": 2264,
      "ada": 2265,
      "ger": 2266,
      "id": 2267,
      "yılında": 2268,
      "bulun": 2269,
      "han": 2270,
      "asında": 2271,
      "yaş": 2272,
      "nin": 2273,
      "su": 2274,
      "mil": 2275,
      "geç": 2276,
      "mer": 2277,
      "for": 2278,
      "pro": 2279,
      "bo": 2280,
      "yla": 2281,
      "na": 2282,
      "15": 2283,
      "12": 2284,
      "ic": 2285,
      "har": 2286,
      "res": 2287,
      "futbolcu": 2288,
      "ku": 2289,
      "sonra": 2290,
      "ması": 2291,
      "daha": 2292,
      "be": 2293,
      "alan": 2294,
      "üç": 2295,
      "nın": 2296,
      "sel": 2297,
      "bağlan": 2298,
      "lendi": 2299,
      "dur": 2300,
      "ların": 2301,
      "eden": 2302,
      "cen": 2303,
      "sür": 2304,
      "197": 2305,
      "ama": 2306,
      "var": 2307,
      "and": 2308,
      "ye": 2309,
      "dön": 2310,
      "bak": 2311,
      "oğ": 2312,
      "tılar": 2313,
      "sır": 2314,
      "büy": 2315,
      "ayr": 2316,
      "pa": 2317,
      "kullan": 2318,
      "17": 2319,
      "her": 2320,
      "çok": 2321,
      "tr": 2322,
      "16": 2323,
      "sal": 2324,
      "tem": 2325,
      "eh": 2326,
      "inden": 2327,
      "yor": 2328,
      "mıştır": 2329,
      "14": 2330,
      "gö": 2331,
      "değ": 2332,
      "13": 2333,
      "iyet": 2334,
      "ft": 2335,
      "yay": 2336,
      "çek": 2337,
      "bar": 2338,
      "amer": 2339,
      "mas": 2340,
      "bağlantılar": 2341,
      "ayan": 2342,
      "lo": 2343,
      "tadır": 2344,
      "unu": 2345,
      "ser": 2346,
      "unda": 2347,
      "yüz": 2348,
      "ko": 2349,
      "ilen": 2350,
      "ilk": 2351,
      "sit": 2352,
      "i̇n": 2353,
      "ileri": 2354,
      "kez": 2355,
      "mo": 2356,
      "çal": 2357,
      "ildi": 2358,
      "alt": 2359,
      "̇r": 2360,
      "büyük": 2361,
      "196": 2362,
      "lendi̇r": 2363,
      "yönlendi̇r": 2364,
      "ren": 2365,
      "ah": 2366,
      "edir": 2367,
      "per": 2368,
      "üf": 2369,
      "dün": 2370,
      "takım": 2371,
      "sav": 2372,
      "üzer": 2373,
      "edi": 2374,
      "ise": 2375,
      "aman": 2376,
      "amerik": 2377,
      "göre": 2378,
      "ılan": 2379,
      "mu": 2380,
      "dem": 2381,
      "21": 2382,
      "bat": 2383,
      "fi": 2384,
      "şar": 2385,
      "tal": 2386,
      "kr": 2387,
      "part": 2388,
      "iyle": 2389,
      "lü": 2390,
      "lara": 2391,
      "|-": 2392,
      "co": 2393,
      "dür": 2394,
      "gu": 2395,
      "22": 2396,
      "karş": 2397,
      "iyon": 2398,
      "çalış": 2399,
      "köy": 2400,
      "span": 2401,
      "kaz": 2402,
      "nüf": 2403,
      "şeh": 2404,
      "vi": 2405,
      "bas": 2406,
      "uştur": 2407,
      "van": 2408,
      "can": 2409,
      "nüfus": 2410,
      "center": 2411,
      "11": 2412,
      "dığı": 2413,
      "türkiye": 2414,
      "||": 2415,
      "bağlı": 2416,
      "dü": 2417,
      "yol": 2418,
      "yak": 2419,
      "mi": 2420,
      "eli": 2421,
      "bur": 2422,
      "laş": 2423,
      "amp": 2424,
      "diğ": 2425,
      "ec": 2426,
      "yeni": 2427,
      "ati": 2428,
      "ni": 2429,
      "ard": 2430,
      "hay": 2431,
      "fran": 2432,
      "25": 2433,
      "çi": 2434,
      "ten": 2435,
      "23": 2436,
      "mü": 2437,
      "eleri": 2438,
      "çe": 2439,
      "dül": 2440,
      "yönlendi̇rme": 2441,
      "olo": 2442,
      "bun": 2443,
      "tedir": 2444,
      "gil": 2445,
      "gru": 2446,
      "yas": 2447,
      "he": 2448,
      "deki": 2449,
      "sen": 2450,
      "mes": 2451,
      "eye": 2452,
      "anı": 2453,
      "şarkı": 2454,
      "umlu": 2455,
      "etti": 2456,
      "devlet": 2457,
      "ho": 2458,
      "i̇s": 2459,
      "maktadır": 2460,
      "adı": 2461,
      "futbolcuları": 2462,
      "stan": 2463,
      "sız": 2464,
      "car": 2465,
      "gibi": 2466,
      "fer": 2467,
      "hip": 2468,
      "ız": 2469,
      "zon": 2470,
      "kor": 2471,
      "por": 2472,
      "haz": 2473,
      "kiş": 2474,
      "kas": 2475,
      "istan": 2476,
      "bilir": 2477,
      "merkez": 2478,
      "hak": 2479,
      "yük": 2480,
      "lerin": 2481,
      "seç": 2482,
      "zaman": 2483,
      "çı": 2484,
      "müz": 2485,
      "iki": 2486,
      "ödül": 2487,
      "kurul": 2488,
      "veya": 2489,
      "ılı": 2490,
      "tel": 2491,
      "gir": 2492,
      "ster": 2493,
      "iver": 2494,
      "24": 2495,
      "195": 2496,
      "spor": 2497,
      "aları": 2498,
      "dünya": 2499,
      "uy": 2500,
      "ladı": 2501,
      "kadar": 2502,
      "**": 2503,
      "kara": 2504,
      "arı": 2505,
      "ban": 2506,
      "sek": 2507,
      "genel": 2508,
      "30": 2509,
      "savaş": 2510,
      "arasında": 2511,
      "ben": 2512,
      "usu": 2513,
      "başkan": 2514,
      "taş": 2515,
      "uk": 2516,
      "dönem": 2517,
      "lat": 2518,
      "üs": 2519,
      "asyon": 2520,
      "pol": 2521,
      "art": 2522,
      "özel": 2523,
      "liği": 2524,
      "kom": 2525,
      "partisi": 2526,
      "po": 2527,
      "oyuncu": 2528,
      "fin": 2529,
      "ayrı": 2530,
      "br": 2531,
      "ii": 2532,
      "esinde": 2533,
      "üt": 2534,
      "yönet": 2535,
      "iyat": 2536,
      "bölüm": 2537,
      "gr": 2538,
      "eğ": 2539,
      "ton": 2540,
      "düz": 2541,
      "yet": 2542,
      "va": 2543,
      "ıldı": 2544,
      "iversit": 2545,
      "194": 2546,
      "doğumlu": 2547,
      "imi": 2548,
      "af": 2549,
      "kap": 2550,
      "left": 2551,
      "cin": 2552,
      "tam": 2553,
      "miş": 2554,
      "uç": 2555,
      "lığı": 2556,
      "sağ": 2557,
      "orta": 2558,
      "düş": 2559,
      "lig": 2560,
      "so": 2561,
      "miştir": 2562,
      "kazan": 2563,
      "inci": 2564,
      "cum": 2565,
      "öğ": 2566,
      "color": 2567,
      "alb": 2568,
      "i̇l": 2569,
      "e9": 2570,
      "kadın": 2571,
      "alık": 2572,
      "yayın": 2573,
      "ana": 2574,
      "i̇ngil": 2575,
      "hur": 2576,
      "larda": 2577,
      "2010": 2578,
      "sayı": 2579,
      "mahal": 2580,
      "ulus": 2581,
      "erk": 2582,
      "ph": 2583,
      "colspan": 2584,
      "ket": 2585,
      "yo": 2586,
      "yi": 2587,
      "go": 2588,
      "ğını": 2589,
      "mal": 2590,
      "şu": 2591,
      "olm": 2592,
      "sahip": 2593,
      "nı": 2594,
      "ağ": 2595,
      "birlik": 2596,
      "tu": 2597,
      "i̇stan": 2598,
      "insan": 2599,
      "larında": 2600,
      "i̇stanbul": 2601,
      "sezon": 2602,
      "pr": 2603,
      "esine": 2604,
      "has": 2605,
      "zı": 2606,
      "maç": 2607,
      "say": 2608,
      "şek": 2609,
      "und": 2610,
      "lis": 2611,
      "26": 2612,
      "kil": 2613,
      "diz": 2614,
      "est": 2615,
      "maya": 2616,
      "görev": 2617,
      "ancak": 2618,
      "lem": 2619,
      "no": 2620,
      "28": 2621,
      "ret": 2622,
      "pi": 2623,
      "ındaki": 2624,
      "ayrıca": 2625,
      "göster": 2626,
      "toplam": 2627,
      "diğer": 2628,
      "birleş": 2629,
      "ht": 2630,
      "2011": 2631,
      "2012": 2632,
      "mad": 2633,
      "belir": 2634,
      "mektedir": 2635,
      "hat": 2636,
      "las": 2637,
      "yal": 2638,
      "alman": 2639,
      "üniversit": 2640,
      "gal": 2641,
      "cü": 2642,
      "ço": 2643,
      "rus": 2644,
      "mayı": 2645,
      "tör": 2646,
      "larını": 2647,
      "ef": 2648,
      "neden": 2649,
      "cumhur": 2650,
      "..": 2651,
      "far": 2652,
      "albüm": 2653,
      "bin": 2654,
      "raf": 2655,
      "ham": 2656,
      "açık": 2657,
      "27": 2658,
      "jo": 2659,
      "karşı": 2660,
      "sil": 2661,
      "2007": 2662,
      "iyor": 2663,
      "2009": 2664,
      "2008": 2665,
      "ven": 2666,
      "din": 2667,
      "eder": 2668,
      "dar": 2669,
      "olu": 2670,
      "kö": 2671,
      "olduğu": 2672,
      "mat": 2673,
      "qu": 2674,
      "mart": 2675,
      "ation": 2676,
      "dis": 2677,
      "hu": 2678,
      "gaz": 2679,
      "2013": 2680,
      "şamp": 2681,
      "ede": 2682,
      "lerini": 2683,
      "aynı": 2684,
      "gü": 2685,
      "şampiyon": 2686,
      "bit": 2687,
      "ant": 2688,
      "rol": 2689,
      "sin": 2690,
      "şehir": 2691,
      "ans": 2692,
      "erkek": 2693,
      "tor": 2694,
      "ika": 2695,
      "yüzyıl": 2696,
      "avru": 2697,
      "sun": 2698,
      "eb": 2699,
      "000": 2700,
      "oloj": 2701,
      "ga": 2702,
      "2014": 2703,
      "doğumlular": 2704,
      "za": 2705,
      "cek": 2706,
      "yle": 2707,
      "29": 2708,
      "gan": 2709,
      "lanan": 2710,
      "ia": 2711,
      "nik": 2712,
      "istem": 2713,
      "dik": 2714,
      "lin": 2715,
      "aç": 2716,
      "pe": 2717,
      "2015": 2718,
      "193": 2719,
      "gro": 2720,
      "avrupa": 2721,
      "oğlu": 2722,
      "nde": 2723,
      "cel": 2724,
      "2016": 2725,
      "ker": 2726,
      "sor": 2727,
      "kol": 2728,
      "gür": 2729,
      "sanat": 2730,
      "kuz": 2731,
      "edilm": 2732,
      "arak": 2733,
      "öyle": 2734,
      "val": 2735,
      ").": 2736,
      "ıt": 2737,
      "ünde": 2738,
      "söz": 2739,
      "del": 2740,
      "mon": 2741,
      "tarihinde": 2742,
      "km": 2743,
      "larının": 2744,
      "etk": 2745,
      "yaptı": 2746,
      "üst": 2747,
      "don": 2748,
      "ğini": 2749,
      "olduğ": 2750,
      "eyi": 2751,
      "2000": 2752,
      "kit": 2753,
      "eski": 2754,
      "ust": 2755,
      "com": 2756,
      "diği": 2757,
      "hem": 2758,
      "gerçek": 2759,
      "una": 2760,
      "birlikte": 2761,
      "style": 2762,
      "mill": 2763,
      "bulunan": 2764,
      "ilç": 2765,
      "alet": 2766,
      "deniz": 2767,
      "nis": 2768,
      "bay": 2769,
      "fak": 2770,
      "sat": 2771,
      "halk": 2772,
      "oluş": 2773,
      "siz": 2774,
      "od": 2775,
      "min": 2776,
      "düzen": 2777,
      "önem": 2778,
      "nda": 2779,
      "osman": 2780,
      "50": 2781,
      "grup": 2782,
      "ac": 2783,
      "cumhuriyet": 2784,
      "2018": 2785,
      "pu": 2786,
      "mez": 2787,
      "i̇ngiliz": 2788,
      "yüksek": 2789,
      "dr": 2790,
      "kır": 2791,
      "aldı": 2792,
      "bet": 2793,
      "yarış": 2794,
      "imler": 2795,
      "pl": 2796,
      "gar": 2797,
      "luk": 2798,
      "ımı": 2799,
      "2017": 2800,
      "list": 2801,
      "2019": 2802,
      "unun": 2803,
      "çev": 2804,
      "sam": 2805,
      "indeki": 2806,
      "yı": 2807,
      "gelen": 2808,
      "final": 2809,
      "ina": 2810,
      "tüm": 2811,
      "kral": 2812,
      "malar": 2813,
      "güney": 2814,
      "e9e9": 2815,
      "sine": 2816,
      "gul": 2817,
      "birleşik": 2818,
      "iti": 2819,
      "back": 2820,
      "fes": 2821,
      "sh": 2822,
      "abd": 2823,
      "bal": 2824,
      "dav": 2825,
      "arası": 2826,
      "ekim": 2827,
      "tü": 2828,
      "mesi": 2829,
      "nun": 2830,
      "beledi": 2831,
      "--": 2832,
      "mahalle": 2833,
      "con": 2834,
      "og": 2835,
      "sistem": 2836,
      "bölg": 2837,
      "amerikalı": 2838,
      "det": 2839,
      "ent": 2840,
      "iyi": 2841,
      "dım": 2842,
      "sev": 2843,
      "ocak": 2844,
      "dil": 2845,
      "tes": 2846,
      "hn": 2847,
      "lerde": 2848,
      "iran": 2849,
      "kes": 2850,
      "2006": 2851,
      "amerika": 2852,
      "get": 2853,
      "faz": 2854,
      "muz": 2855,
      "lül": 2856,
      "fe": 2857,
      "kasım": 2858,
      "müzik": 2859,
      "parti": 2860,
      "ilg": 2861,
      "likle": 2862,
      "ses": 2863,
      "2020": 2864,
      "gerek": 2865,
      "bilin": 2866,
      "sar": 2867,
      "ip": 2868,
      "üniversitesi": 2869,
      "sch": 2870,
      "yu": 2871,
      "ıs": 2872,
      "net": 2873,
      "üret": 2874,
      "larına": 2875,
      "bah": 2876,
      "içer": 2877,
      "kuzey": 2878,
      "eylül": 2879,
      "küç": 2880,
      "40": 2881,
      "new": 2882,
      "lerinin": 2883,
      "ly": 2884,
      "tas": 2885,
      "ulu": 2886,
      "gol": 2887,
      "bey": 2888,
      "çocu": 2889,
      "üp": 2890,
      "ground": 2891,
      "mayıs": 2892,
      "hen": 2893,
      "fark": 2894,
      "göz": 2895,
      "ord": 2896,
      "şir": 2897,
      "fo": 2898,
      "öğren": 2899,
      "bazı": 2900,
      "aralık": 2901,
      "lendir": 2902,
      "ünü": 2903,
      "şi": 2904,
      "şekil": 2905,
      "sonuç": 2906,
      "yardım": 2907,
      "aşa": 2908,
      "33": 2909,
      "rat": 2910,
      "background": 2911,
      "eti": 2912,
      "ola": 2913,
      "katıl": 2914,
      "landır": 2915,
      "haziran": 2916,
      "wid": 2917,
      "küçük": 2918,
      "kup": 2919,
      "önemli": 2920,
      "bor": 2921,
      "ılık": 2922,
      "eğit": 2923,
      "hük": 2924,
      "ator": 2925,
      "siyon": 2926,
      "durum": 2927,
      "width": 2928,
      "tarihi": 2929,
      "kullanıl": 2930,
      "2005": 2931,
      "les": 2932,
      "kem": 2933,
      "önce": 2934,
      "hayat": 2935,
      "ilik": 2936,
      "kim": 2937,
      "bakan": 2938,
      "hil": 2939,
      "ağu": 2940,
      "landı": 2941,
      "eşit": 2942,
      "lama": 2943,
      "harek": 2944,
      "stos": 2945,
      "temmuz": 2946,
      "gram": 2947,
      "tanım": 2948,
      "olduğunu": 2949,
      "ağustos": 2950,
      "ödülü": 2951,
      "oluştur": 2952,
      "verileri": 2953,
      "vet": 2954,
      "adlı": 2955,
      "med": 2956,
      "kaç": 2957,
      "osmanlı": 2958,
      "nisan": 2959,
      "nor": 2960,
      "başladı": 2961,
      "yıllara": 2962,
      "dağ": 2963,
      "tamam": 2964,
      "sü": 2965,
      "roman": 2966,
      "ülk": 2967,
      "şubat": 2968,
      "dal": 2969,
      "yapılan": 2970,
      "ps": 2971,
      "dol": 2972,
      "yapıl": 2973,
      "2004": 2974,
      "mem": 2975,
      "60": 2976,
      "yun": 2977,
      "sk": 2978,
      ":#": 2979,
      "ry": 2980,
      "uzun": 2981,
      "müş": 2982,
      "tik": 2983,
      "liğ": 2984,
      "tra": 2985,
      "değiş": 2986,
      "ener": 2987,
      "lere": 2988,
      "dest": 2989,
      "şa": 2990,
      "ez": 2991,
      "biri": 2992,
      "kül": 2993,
      "ley": 2994,
      "yapı": 2995,
      "des": 2996,
      "millî": 2997,
      "tut": 2998,
      "ep": 2999,
      "devam": 3000,
      "ris": 3001,
      "alın": 3002,
      "i̇tal": 3003,
      "lerinde": 3004,
      "vil": 3005,
      "şirket": 3006,
      "onom": 3007,
      "madı": 3008,
      "pat": 3009,
      "daş": 3010,
      "getir": 3011,
      "yum": 3012,
      "kız": 3013,
      "ıştır": 3014,
      "yaşayan": 3015,
      "bg": 3016,
      "100": 3017,
      "beş": 3018,
      "lardan": 3019,
      "wil": 3020,
      "kel": 3021,
      "kariy": 3022,
      "sur": 3023,
      "işk": 3024,
      "pet": 3025,
      "zi": 3026,
      "mı": 3027,
      "şekilde": 3028,
      "yazar": 3029,
      "telev": 3030,
      "31": 3031,
      "leştir": 3032,
      "bilim": 3033,
      "erek": 3034,
      "pg": 3035,
      "ex": 3036,
      "hol": 3037,
      "uluslar": 3038,
      "yalı": 3039,
      "ja": 3040,
      "i̇m": 3041,
      "35": 3042,
      "sta": 3043,
      "git": 3044,
      "ardından": 3045,
      "elik": 3046,
      "hr": 3047,
      "oyn": 3048,
      "bgcolor": 3049,
      "arka": 3050,
      "bilg": 3051,
      "mir": 3052,
      "sonr": 3053,
      "araş": 3054,
      "sos": 3055,
      "atan": 3056,
      "süre": 3057,
      "rak": 3058,
      "başkanı": 3059,
      "mey": 3060,
      "izyon": 3061,
      "ilir": 3062,
      "kupası": 3063,
      "luğu": 3064,
      "dos": 3065,
      "üzerine": 3066,
      "doğu": 3067,
      "i̇yi": 3068,
      "ilmiştir": 3069,
      "futbolcular": 3070,
      "aka": 3071,
      "bek": 3072,
      "maz": 3073,
      "güç": 3074,
      "rek": 3075,
      "lon": 3076,
      "dör": 3077,
      "land": 3078,
      "2021": 3079,
      "teknik": 3080,
      "nes": 3081,
      "edildi": 3082,
      "elem": 3083,
      "genç": 3084,
      "üzere": 3085,
      "onya": 3086,
      "34": 3087,
      "olmak": 3088,
      "ğü": 3089,
      "çocuk": 3090,
      "ova": 3091,
      "cer": 3092,
      "amil": 3093,
      "parator": 3094,
      "ankara": 3095,
      "uygul": 3096,
      "içinde": 3097,
      "yaklaş": 3098,
      "kü": 3099,
      "pan": 3100,
      "1990": 3101,
      "yok": 3102,
      "kend": 3103,
      "zor": 3104,
      "çıkar": 3105,
      "width1": 3106,
      "chi": 3107,
      "yaşam": 3108,
      "2002": 3109,
      "lerine": 3110,
      "larından": 3111,
      "kut": 3112,
      "sc": 3113,
      "tv": 3114,
      "tah": 3115,
      "tion": 3116,
      "lığ": 3117,
      "tim": 3118,
      "2003": 3119,
      "gı": 3120,
      "millet": 3121,
      "birçok": 3122,
      "sayısı": 3123,
      "36": 3124,
      "jap": 3125,
      "kabul": 3126,
      "fazla": 3127,
      "meye": 3128,
      "elen": 3129,
      "ire": 3130,
      "80": 3131,
      "onu": 3132,
      "karak": 3133,
      "37": 3134,
      "ilçesine": 3135,
      "sın": 3136,
      "filmler": 3137,
      "sim": 3138,
      "ner": 3139,
      "ölüm": 3140,
      "45": 3141,
      "97": 3142,
      "fransız": 3143,
      "plan": 3144,
      "doğru": 3145,
      "uluslararası": 3146,
      "aday": 3147,
      "by": 3148,
      "ast": 3149,
      "bunun": 3150,
      "ilgili": 3151,
      "televizyon": 3152,
      "gur": 3153,
      "lük": 3154,
      "190": 3155,
      "ji": 3156,
      "ucu": 3157,
      "sol": 3158,
      "90": 3159,
      "i̇lk": 3160,
      "fransa": 3161,
      "çeşit": 3162,
      "eğitim": 3163,
      "ölen": 3164,
      "insanlar": 3165,
      "devletleri": 3166,
      "kendi": 3167,
      "layan": 3168,
      "hiz": 3169,
      "masına": 3170,
      "hayvan": 3171,
      "savaşı": 3172,
      "sını": 3173,
      "rom": 3174,
      "leme": 3175,
      "sıra": 3176,
      "2001": 3177,
      "çin": 3178,
      "au": 3179,
      "araştır": 3180,
      "siya": 3181,
      "bile": 3182,
      "cam": 3183,
      "yıldı": 3184,
      "türü": 3185,
      "yarı": 3186,
      "je": 3187,
      "we": 3188,
      "çağ": 3189,
      "birliği": 3190,
      "mah": 3191,
      "itibar": 3192,
      "vol": 3193,
      "görün": 3194,
      "mit": 3195,
      "dae": 3196,
      "altın": 3197,
      "geri": 3198,
      "tay": 3199,
      "cal": 3200,
      "kent": 3201,
      "not": 3202,
      "ulaş": 3203,
      "program": 3204,
      "zer": 3205,
      "jpg": 3206,
      "almanya": 3207,
      "takımı": 3208,
      "38": 3209,
      "üne": 3210,
      "john": 3211,
      "int": 3212,
      "kısa": 3213,
      "uzak": 3214,
      "anlam": 3215,
      "red": 3216,
      "lim": 3217,
      "ght": 3218,
      "one": 3219,
      "hareket": 3220,
      "elek": 3221,
      "famil": 3222,
      "ari": 3223,
      "my": 3224,
      "çiler": 3225,
      "ele": 3226,
      "nu": 3227,
      "dy": 3228,
      "inter": 3229,
      "yakın": 3230,
      "değil": 3231,
      "puan": 3232,
      "topl": 3233,
      "biz": 3234,
      "ikinci": 3235,
      "sem": 3236,
      "medi": 3237,
      "enin": 3238,
      "eser": 3239,
      "lerinden": 3240,
      "demir": 3241,
      "kişi": 3242,
      "kg": 3243,
      "2022": 3244,
      "alya": 3245,
      "edilen": 3246,
      "siyas": 3247,
      "sak": 3248,
      "def": 3249,
      "bes": 3250,
      "inc": 3251,
      "gazet": 3252,
      "değer": 3253,
      "batı": 3254,
      "ulusal": 3255,
      "47": 3256,
      "boy": 3257,
      "vardır": 3258,
      "tiyat": 3259,
      "gh": 3260,
      "nedeniyle": 3261,
      "\"#": 3262,
      "gin": 3263,
      "lak": 3264,
      "kıs": 3265,
      "farklı": 3266,
      "sosyal": 3267,
      "up": 3268,
      "mor": 3269,
      "1999": 3270,
      "kür": 3271,
      "fil": 3272,
      "rı": 3273,
      "ecek": 3274,
      "mus": 3275,
      "ilişk": 3276,
      "asker": 3277,
      "işim": 3278,
      "geçir": 3279,
      "yapım": 3280,
      "siyaset": 3281,
      "saldır": 3282,
      "ty": 3283,
      "tiyatro": 3284,
      "düşün": 3285,
      "olmuştur": 3286,
      "hakk": 3287,
      "1997": 3288,
      "ona": 3289,
      "karar": 3290,
      "imp": 3291,
      "hizmet": 3292,
      "duğu": 3293,
      "merkezi": 3294,
      "sade": 3295,
      "ilmiş": 3296,
      "ölenler": 3297,
      "sınır": 3298,
      "39": 3299,
      "48": 3300,
      "gön": 3301,
      "isinde": 3302,
      "acak": 3303,
      "avust": 3304,
      "wor": 3305,
      "yunan": 3306,
      "i̇k": 3307,
      "sırasında": 3308,
      "fik": 3309,
      "70": 3310,
      "32": 3311,
      "isyon": 3312,
      "üsü": 3313,
      "oto": 3314,
      "demok": 3315,
      "üzerinde": 3316,
      "tin": 3317,
      "yerleş": 3318,
      "belediy": 3319,
      "i̇z": 3320,
      "uc": 3321,
      "eur": 3322,
      "vide": 3323,
      "ünün": 3324,
      "taki": 3325,
      "yeniden": 3326,
      "altı": 3327,
      "ülke": 3328,
      "66": 3329,
      "tran": 3330,
      "pop": 3331,
      "söyle": 3332,
      "konuş": 3333,
      "mam": 3334,
      "ts": 3335,
      "boyun": 3336,
      "lenen": 3337,
      "rar": 3338,
      "yılı": 3339,
      "mm": 3340,
      "ers": 3341,
      "ity": 3342,
      "kültür": 3343,
      "esinin": 3344,
      "bağım": 3345,
      "güven": 3346,
      "bra": 3347,
      "geliştir": 3348,
      "onun": 3349,
      "pen": 3350,
      "hava": 3351,
      "kuv": 3352,
      "meh": 3353,
      "dosya": 3354,
      "olay": 3355,
      "1998": 3356,
      "ılmış": 3357,
      "\",": 3358,
      "muştur": 3359,
      "masını": 3360,
      "muş": 3361,
      "direk": 3362,
      "sul": 3363,
      "sadece": 3364,
      "ww": 3365,
      "ortaya": 3366,
      "haf": 3367,
      "zen": 3368,
      "yayım": 3369,
      ".\"": 3370,
      "wn": 3371,
      "destek": 3372,
      "ram": 3373,
      "55": 3374,
      "maları": 3375,
      "mik": 3376,
      "ümüz": 3377,
      "yur": 3378,
      "ste": 3379,
      "abilir": 3380,
      "los": 3381,
      "i̇mparator": 3382,
      "yönetmen": 3383,
      "bn": 3384,
      "ece": 3385,
      "hız": 3386,
      "gue": 3387,
      "i̇span": 3388,
      "hazır": 3389,
      "ie": 3390,
      "şehr": 3391,
      "ınız": 3392,
      "sık": 3393,
      "dra": 3394,
      "bro": 3395,
      "çeşitli": 3396,
      "ilerin": 3397,
      "kulüp": 3398,
      "yaklaşık": 3399,
      "wa": 3400,
      "önc": 3401,
      "başarı": 3402,
      "ligi": 3403,
      "ektedir": 3404,
      "larla": 3405,
      "i̇ş": 3406,
      "üc": 3407,
      "his": 3408,
      "mic": 3409,
      "atı": 3410,
      "milyon": 3411,
      "ff": 3412,
      "yardımcı": 3413,
      "mev": 3414,
      "oğun": 3415,
      "izm": 3416,
      "görül": 3417,
      "ell": 3418,
      "46": 3419,
      "kitap": 3420,
      "filmleri": 3421,
      "mur": 3422,
      "eyalet": 3423,
      "kuş": 3424,
      "kın": 3425,
      "stat": 3426,
      "cor": 3427,
      "dak": 3428,
      "wo": 3429,
      "1996": 3430,
      "parç": 3431,
      "dok": 3432,
      "49": 3433,
      "asıl": 3434,
      "e9e9e9": 3435,
      "gun": 3436,
      "sanatçı": 3437,
      "takson": 3438,
      "isim": 3439,
      "tere": 3440,
      "oloji": 3441,
      "tif": 3442,
      "vur": 3443,
      "paris": 3444,
      "kuvvet": 3445,
      "ekonom": 3446,
      "ılır": 3447,
      "hit": 3448,
      "win": 3449,
      "olimp": 3450,
      "aj": 3451,
      "dört": 3452,
      "ail": 3453,
      "öğret": 3454,
      "sov": 3455,
      "gra": 3456,
      "bre": 3457,
      "rusya": 3458,
      "kazandı": 3459,
      "mec": 3460,
      "aras": 3461,
      "bağımsız": 3462,
      "yüksel": 3463,
      "öldür": 3464,
      "nok": 3465,
      "bır": 3466,
      "konu": 3467,
      "mut": 3468,
      "ifa": 3469,
      "lor": 3470,
      "karakter": 3471,
      "şey": 3472,
      "bert": 3473,
      "fc": 3474,
      "1995": 3475,
      "seri": 3476,
      "1994": 3477,
      "oper": 3478,
      "anan": 3479,
      "yordu": 3480,
      "beri": 3481,
      "profes": 3482,
      "bakınız": 3483,
      "pek": 3484,
      "lerden": 3485,
      "best": 3486,
      "dizi": 3487,
      "form": 3488,
      "video": 3489,
      "57": 3490,
      "ros": 3491,
      "yaptığı": 3492,
      "belirt": 3493,
      "günümüz": 3494,
      "44": 3495,
      "ann": 3496,
      "bab": 3497,
      "kurulan": 3498,
      "yür": 3499,
      "cas": 3500,
      "1985": 3501,
      "resmi": 3502,
      "kam": 3503,
      "grubu": 3504,
      "olup": 3505,
      "wit": 3506,
      "olimpiyat": 3507,
      "1992": 3508,
      "atik": 3509,
      "resim": 3510,
      "boyunca": 3511,
      "karşıl": 3512,
      "paşa": 3513,
      "direktör": 3514,
      "rağ": 3515,
      "temsil": 3516,
      "sey": 3517,
      "web": 3518,
      "1993": 3519,
      "tığı": 3520,
      "tasar": 3521,
      "coğ": 3522,
      "seçim": 3523,
      "ordu": 3524,
      "bırak": 3525,
      "karde": 3526,
      "ğin": 3527,
      "sinema": 3528,
      "pal": 3529,
      "york": 3530,
      "anlaş": 3531,
      "wi": 3532,
      "bölge": 3533,
      "ze": 3534,
      "dık": 3535,
      "gem": 3536,
      "okul": 3537,
      "yılları": 3538,
      "cumhuriyeti": 3539,
      "mel": 3540,
      "zamanda": 3541,
      "i̇ngiltere": 3542,
      "oyunları": 3543,
      "58": 3544,
      "dahil": 3545,
      "polit": 3546,
      "yönetim": 3547,
      "2023": 3548,
      "may": 3549,
      "geniş": 3550,
      "sy": 3551,
      "yasa": 3552,
      "başar": 3553,
      "kir": 3554,
      "yolu": 3555,
      "bri": 3556,
      "yıldız": 3557,
      "sovyet": 3558,
      "esini": 3559,
      "fat": 3560,
      "şarkıcı": 3561,
      "basket": 3562,
      "akadem": 3563,
      "\"|": 3564,
      "kin": 3565,
      "veç": 3566,
      "56": 3567,
      "saat": 3568,
      "ilinin": 3569,
      "99": 3570,
      "pres": 3571,
      "ron": 3572,
      "listesi": 3573,
      "cy": 3574,
      "roma": 3575,
      "geliş": 3576,
      "liam": 3577,
      "lit": 3578,
      "bilgi": 3579,
      "tiv": 3580,
      "gurbet": 3581,
      "luğ": 3582,
      "ölç": 3583,
      "yerine": 3584,
      "altında": 3585,
      "usunda": 3586,
      "1991": 3587,
      "yat": 3588,
      "ödülleri": 3589,
      "tb": 3590,
      "ws": 3591,
      "i̇talya": 3592,
      "tat": 3593,
      "188": 3594,
      "arap": 3595,
      "trol": 3596,
      "fon": 3597,
      "ces": 3598,
      "sınıf": 3599,
      "kendis": 3600,
      "genellikle": 3601,
      "ılmıştır": 3602,
      "bulunmaktadır": 3603,
      "milletve": 3604,
      "afr": 3605,
      "biy": 3606,
      "doğan": 3607,
      "ıyla": 3608,
      "özellikle": 3609,
      "aret": 3610,
      "tex": 3611,
      "başka": 3612,
      "demokrat": 3613,
      "gül": 3614,
      "hiç": 3615,
      "trans": 3616,
      "savun": 3617,
      "ifade": 3618,
      "tep": 3619,
      "ıcı": 3620,
      "şah": 3621,
      "sing": 3622,
      "adam": 3623,
      "ime": 3624,
      "gın": 3625,
      "filmi": 3626,
      "war": 3627,
      "ait": 3628,
      "şampiyonası": 3629,
      "kav": 3630,
      "75": 3631,
      "hy": 3632,
      "gök": 3633,
      "1980": 3634,
      "i̇ngilizce": 3635,
      "bon": 3636,
      "aca": 3637,
      "evi": 3638,
      "nam": 3639,
      "pas": 3640,
      "familyas": 3641,
      "ağır": 3642,
      "ettiği": 3643,
      "madde": 3644,
      ".)": 3645,
      "taşı": 3646,
      "süper": 3647,
      "amerikan": 3648,
      "temel": 3649,
      "ize": 3650,
      "asyonu": 3651,
      "oz": 3652,
      "hakkında": 3653,
      "enler": 3654,
      "ince": 3655,
      "ünden": 3656,
      "landa": 3657,
      "edilmiştir": 3658,
      "silah": 3659,
      "lay": 3660,
      "dönüş": 3661,
      "gre": 3662,
      "komut": 3663,
      "boz": 3664,
      "gönder": 3665,
      "ian": 3666,
      "num": 3667,
      "01": 3668,
      "geler": 3669,
      "mağ": 3670,
      "char": 3671,
      "uluk": 3672,
      "organ": 3673,
      "oyunc": 3674,
      "devr": 3675,
      "istik": 3676,
      "olur": 3677,
      "anad": 3678,
      "lek": 3679,
      "ğında": 3680,
      "all": 3681,
      "nüfusu": 3682,
      "eni": 3683,
      "taksonlar": 3684,
      "esel": 3685,
      "giy": 3686,
      "ary": 3687,
      "hükû": 3688,
      "rich": 3689,
      "rafya": 3690,
      "tekrar": 3691,
      "dor": 3692,
      "sidir": 3693,
      "çar": 3694,
      "hükûmet": 3695,
      "çift": 3696,
      "gerçekleştir": 3697,
      "elektr": 3698,
      "büt": 3699,
      "etmek": 3700,
      "müca": 3701,
      "keş": 3702,
      "cil": 3703,
      "nek": 3704,
      "mehmet": 3705,
      "eleş": 3706,
      "42": 3707,
      "ang": 3708,
      "yüzyılda": 3709,
      "68": 3710,
      "ata": 3711,
      "adalet": 3712,
      "görüş": 3713,
      "poz": 3714,
      "üçün": 3715,
      "hüküm": 3716,
      "io": 3717,
      "him": 3718,
      "rağmen": 3719,
      "59": 3720,
      "yerel": 3721,
      "ion": 3722,
      "kariyer": 3723,
      "burg": 3724,
      "toprak": 3725,
      "basketbol": 3726,
      "78": 3727,
      "belediye": 3728,
      "fel": 3729,
      "müştür": 3730,
      "anlat": 3731,
      "ision": 3732,
      "lea": 3733,
      "geçen": 3734,
      "41": 3735,
      "feder": 3736,
      "ford": 3737,
      "ülkeler": 3738,
      "verdi": 3739,
      "dia": 3740,
      "uğ": 3741,
      "mos": 3742,
      "eleştir": 3743,
      "aktadır": 3744,
      "1989": 3745,
      "mahall": 3746,
      "oyna": 3747,
      "ras": 3748,
      "ju": 3749,
      "fakat": 3750,
      "ydı": 3751,
      "tık": 3752,
      "stad": 3753,
      "dolayı": 3754,
      "anadolu": 3755,
      "olması": 3756,
      "ilmesi": 3757,
      "emedi": 3758,
      "ung": 3759,
      "fır": 3760,
      "familyasına": 3761,
      "iyan": 3762,
      "üyesi": 3763,
      "merkezine": 3764,
      "aray": 3765,
      "boş": 3766,
      "76": 3767,
      "kontrol": 3768,
      "arkadaş": 3769,
      "sah": 3770,
      "dele": 3771,
      "ward": 3772,
      "eme": 3773,
      "ue": 3774,
      "dek": 3775,
      "anda": 3776,
      "emek": 3777,
      "rad": 3778,
      ".,": 3779,
      "ticar": 3780,
      "olog": 3781,
      "189": 3782,
      "gran": 3783,
      "inşa": 3784,
      "para": 3785,
      "adlandır": 3786,
      "mc": 3787,
      "tesi": 3788,
      "umu": 3789,
      "elde": 3790,
      "göl": 3791,
      "türüdür": 3792,
      "ici": 3793,
      "karşılaş": 3794,
      "kop": 3795,
      "yapan": 3796,
      "pit": 3797,
      "hin": 3798,
      "fiz": 3799,
      "olduk": 3800,
      "suç": 3801,
      "dam": 3802,
      "tanımlanan": 3803,
      "paz": 3804,
      "43": 3805,
      "kitab": 3806,
      "aya": 3807,
      "beyaz": 3808,
      "lerle": 3809,
      "çiz": 3810,
      "kaya": 3811,
      "çıktı": 3812,
      "jam": 3813,
      "gam": 3814,
      "if": 3815,
      "vir": 3816,
      "lardır": 3817,
      "coğrafya": 3818,
      "isinin": 3819,
      "ulan": 3820,
      "ble": 3821,
      "lah": 3822,
      "tbmm": 3823,
      "kayıt": 3824,
      "bahçe": 3825,
      "65": 3826,
      "değiştir": 3827,
      "1988": 3828,
      "mot": 3829,
      "siyasi": 3830,
      "jan": 3831,
      "kulü": 3832,
      "dana": 3833,
      "...": 3834,
      "asına": 3835,
      "1970": 3836,
      "söy": 3837,
      "böyle": 3838,
      "dük": 3839,
      "çalışmalar": 3840,
      "dayan": 3841,
      "sonunda": 3842,
      "meler": 3843,
      "azer": 3844,
      "1987": 3845,
      "kurt": 3846,
      "geldi": 3847,
      "birkaç": 3848,
      "çıkış": 3849,
      "text": 3850,
      "saldırı": 3851,
      "77": 3852,
      "haber": 3853,
      "ld": 3854,
      "bulunur": 3855,
      "tri": 3856,
      "gelir": 3857,
      "):": 3858,
      "plat": 3859,
      "from": 3860,
      "isti": 3861,
      "suz": 3862,
      "ory": 3863,
      "özellik": 3864,
      "nation": 3865,
      "kariyeri": 3866,
      "1986": 3867,
      "yahu": 3868,
      "fir": 3869,
      "ide": 3870,
      "ılması": 3871,
      "mis": 3872,
      "ask": 3873,
      "geor": 3874,
      "hik": 3875,
      "tarihçe": 3876,
      "//": 3877,
      "ag": 3878,
      "üçüncü": 3879,
      "kazanan": 3880,
      "zil": 3881,
      "ae": 3882,
      "tip": 3883,
      "william": 3884,
      "teki": 3885,
      "model": 3886,
      "lav": 3887,
      "undan": 3888,
      "başlam": 3889,
      "pp": 3890,
      "play": 3891,
      "soy": 3892,
      "bakanı": 3893,
      "cinsine": 3894,
      "uzaklık": 3895,
      "lanmıştır": 3896,
      "08": 3897,
      "league": 3898,
      "kişiler": 3899,
      "tanın": 3900,
      "f2": 3901,
      "arasındaki": 3902,
      "anın": 3903,
      "fakül": 3904,
      "yaşında": 3905,
      "emi": 3906,
      "day": 3907,
      "vas": 3908,
      "baycan": 3909,
      "yağ": 3910,
      "naz": 3911,
      "araştırma": 3912,
      "ünlü": 3913,
      "mark": 3914,
      "değişik": 3915,
      "asya": 3916,
      "sahi": 3917,
      "açı": 3918,
      "oranı": 3919,
      "geçer": 3920,
      "brit": 3921,
      "cha": 3922,
      "kulüb": 3923,
      "sırada": 3924,
      "kullanılan": 3925,
      "aber": 3926,
      "ortak": 3927,
      "hor": 3928,
      "oyuncuları": 3929,
      "eral": 3930,
      "burada": 3931,
      "67": 3932,
      "fener": 3933,
      "cılı": 3934,
      "ds": 3935,
      "64": 3936,
      "şim": 3937,
      "berg": 3938,
      "yorum": 3939,
      "madalya": 3940,
      "diye": 3941,
      "69": 3942,
      "wal": 3943,
      "olmayan": 3944,
      "musta": 3945,
      "bus": 3946,
      "que": 3947,
      "star": 3948,
      "kayb": 3949,
      "huku": 3950,
      "54": 3951,
      "ayet": 3952,
      "ciler": 3953,
      "1984": 3954,
      "diğini": 3955,
      "sultan": 3956,
      "proj": 3957,
      "isbn": 3958,
      "iv": 3959,
      "babası": 3960,
      "cılık": 3961,
      "afrika": 3962,
      "ira": 3963,
      "mız": 3964,
      "52": 3965,
      "birinci": 3966,
      "kadınlar": 3967,
      "iydi": 3968,
      "ate": 3969,
      "teş": 3970,
      "atas": 3971,
      "zar": 3972,
      "i̇mparatorluğu": 3973,
      "giz": 3974,
      "yanı": 3975,
      "olojik": 3976,
      "mustafa": 3977,
      "mim": 3978,
      "bilinen": 3979,
      "ayd": 3980,
      "sis": 3981,
      "jos": 3982,
      "çu": 3983,
      "aşağı": 3984,
      "htt": 3985,
      "azerbaycan": 3986,
      "09": 3987,
      "rik": 3988,
      "mayan": 3989,
      "53": 3990,
      "i̇ran": 3991,
      "bla": 3992,
      "hafta": 3993,
      "i̇talyan": 3994,
      "coun": 3995,
      "çap": 3996,
      "cem": 3997,
      "türkçe": 3998,
      "cut": 3999,
      "fet": 4000,
      "----": 4001,
      "kuruluş": 4002,
      "duy": 4003,
      "jin": 4004,
      "alır": 4005,
      "sında": 4006,
      "ale": 4007,
      "nit": 4008,
      "51": 4009,
      "ermen": 4010,
      "tanrı": 4011,
      "idi": 4012,
      "madan": 4013,
      "dağı": 4014,
      "://": 4015,
      "hangi": 4016,
      "çevr": 4017,
      "moder": 4018,
      "güz": 4019,
      "belde": 4020,
      "tro": 4021,
      "88": 4022,
      "atör": 4023,
      "oluşan": 4024,
      "ny": 4025,
      "che": 4026,
      "gali": 4027,
      "ahmet": 4028,
      "sahiptir": 4029,
      "motor": 4030,
      "rock": 4031,
      "araç": 4032,
      "çıkan": 4033,
      "rail": 4034,
      "almıştır": 4035,
      "vak": 4036,
      "üler": 4037,
      "perfor": 4038,
      "sitesi": 4039,
      "eyen": 4040,
      "etkin": 4041,
      "sas": 4042,
      "adıyla": 4043,
      "kalan": 4044,
      "askeri": 4045,
      "osu": 4046,
      "stadyum": 4047,
      "gurbetçi": 4048,
      "emin": 4049,
      "bugün": 4050,
      "hav": 4051,
      "mö": 4052,
      "krallık": 4053,
      "lanmış": 4054,
      "yonel": 4055,
      "oyuncular": 4056,
      "ebilir": 4057,
      "giriş": 4058,
      "hes": 4059,
      "yazı": 4060,
      "çöz": 4061,
      "ort": 4062,
      "diler": 4063,
      "derg": 4064,
      "beraber": 4065,
      "iste": 4066,
      "profesyonel": 4067,
      "küt": 4068,
      "ila": 4069,
      "63": 4070,
      "örne": 4071,
      "city": 4072,
      "blo": 4073,
      "öldü": 4074,
      "çat": 4075,
      "cr": 4076,
      "1960": 4077,
      "79": 4078,
      "i̇slam": 4079,
      "cins": 4080,
      "jen": 4081,
      "ester": 4082,
      "imiz": 4083,
      "fr": 4084,
      "başı": 4085,
      "i̇ç": 4086,
      "world": 4087,
      "cat": 4088,
      "serbest": 4089,
      "ish": 4090,
      "müdür": 4091,
      "hey": 4092,
      "ayak": 4093,
      "sebe": 4094,
      "i̇r": 4095,
      "paul": 4096,
      "fenerbahçe": 4097,
      "set": 4098,
      "japonya": 4099,
      "performan": 4100,
      "bütün": 4101,
      "edeb": 4102,
      "angel": 4103,
      "i̇spanya": 4104,
      "1983": 4105,
      "yine": 4106,
      "nat": 4107,
      "stit": 4108,
      "sistemi": 4109,
      "manın": 4110,
      "neh": 4111,
      "asını": 4112,
      "isini": 4113,
      "kaldı": 4114,
      "modern": 4115,
      "pap": 4116,
      "tun": 4117,
      "bb": 4118,
      "1982": 4119,
      "öğrenim": 4120,
      "foto": 4121,
      "kale": 4122,
      "vo": 4123,
      "ill": 4124,
      "ışı": 4125,
      "ano": 4126,
      "uma": 4127,
      "iyordu": 4128,
      "dro": 4129,
      "ob": 4130,
      "günü": 4131,
      "04": 4132,
      "itibaren": 4133,
      "vin": 4134,
      "07": 4135,
      "fifa": 4136,
      "erkekler": 4137,
      "japon": 4138,
      "park": 4139,
      "mücadele": 4140,
      "pay": 4141,
      "1979": 4142,
      "sahibi": 4143,
      "örg": 4144,
      "cinsidir": 4145,
      "()": 4146,
      "galatas": 4147,
      "david": 4148,
      "galatasaray": 4149,
      "ment": 4150,
      "yerleşim": 4151,
      "hel": 4152,
      "amaya": 4153,
      "verilen": 4154,
      "muh": 4155,
      "kili": 4156,
      "toplum": 4157,
      "bildir": 4158,
      "ms": 4159,
      "güm": 4160,
      "i̇srail": 4161,
      "kaldır": 4162,
      "i̇zmir": 4163,
      "mısır": 4164,
      "avustr": 4165,
      "aması": 4166,
      "mada": 4167,
      "biç": 4168,
      "benzer": 4169,
      "iri": 4170,
      "bank": 4171,
      "sonucu": 4172,
      "cep": 4173,
      "1981": 4174,
      "vel": 4175,
      "gon": 4176,
      "cular": 4177,
      "bl": 4178,
      "lider": 4179,
      "sürdür": 4180,
      "pil": 4181,
      "etik": 4182,
      "çoğu": 4183,
      "yaban": 4184,
      "sonraki": 4185,
      "mesine": 4186,
      "aldığı": 4187,
      "61": 4188,
      "ıyor": 4189,
      "cez": 4190,
      "ite": 4191,
      "i̇kinci": 4192,
      "are": 4193,
      "turnu": 4194,
      "hael": 4195,
      "national": 4196,
      "bulundu": 4197,
      "uyar": 4198,
      "gerçekleş": 4199,
      "ıp": 4200,
      "tekn": 4201,
      "renk": 4202,
      "aların": 4203,
      "way": 4204,
      "lüğü": 4205,
      "edilir": 4206,
      "bölgeler": 4207,
      "nız": 4208,
      "güzel": 4209,
      "kâ": 4210,
      "ayar": 4211,
      "engel": 4212,
      "inan": 4213,
      "geçti": 4214,
      "iii": 4215,
      "örnek": 4216,
      "05": 4217,
      "polis": 4218,
      "wer": 4219,
      "bölgesi": 4220,
      "yalnız": 4221,
      "üldü": 4222,
      "adını": 4223,
      "açıklam": 4224,
      "kilis": 4225,
      "koy": 4226,
      "cis": 4227,
      "tepe": 4228,
      "kanal": 4229,
      "amacı": 4230,
      "hon": 4231,
      "1965": 4232,
      "iliği": 4233,
      "lov": 4234,
      "sağlam": 4235,
      "ateş": 4236,
      "::": 4237,
      "eki": 4238,
      "güreş": 4239,
      "1975": 4240,
      "ders": 4241,
      "abile": 4242,
      "buna": 4243,
      "dikkat": 4244,
      "06": 4245,
      "sik": 4246,
      "off": 4247,
      "nas": 4248,
      "ılım": 4249,
      "bis": 4250,
      "pt": 4251,
      "dedi": 4252,
      "chris": 4253,
      "tom": 4254,
      "lisi": 4255,
      "1977": 4256,
      "1978": 4257,
      "03": 4258,
      "faal": 4259,
      "şekl": 4260,
      "döneminde": 4261,
      "fu": 4262,
      "başlan": 4263,
      "ilmektedir": 4264,
      "masının": 4265,
      "şen": 4266,
      "örgüt": 4267,
      "başbakan": 4268,
      "fab": 4269,
      "vatan": 4270,
      "ani": 4271,
      "albümü": 4272,
      "elemeleri": 4273,
      "1974": 4274,
      "yoğun": 4275,
      "ogra": 4276,
      "doktor": 4277,
      "lou": 4278,
      "michael": 4279,
      "1973": 4280,
      "alanı": 4281,
      "almaktadır": 4282,
      "katıldı": 4283,
      "dair": 4284,
      "veren": 4285,
      "dışında": 4286,
      "pis": 4287,
      "ino": 4288,
      "aydın": 4289,
      "adet": 4290,
      "uzaklıktadır": 4291,
      "vat": 4292,
      "fizik": 4293,
      "meyi": 4294,
      "edebiyat": 4295,
      "avustur": 4296,
      "çak": 4297,
      "ice": 4298,
      "ng": 4299,
      "üyeleri": 4300,
      "esinden": 4301,
      "muhar": 4302,
      "sağlık": 4303,
      "nav": 4304,
      "ürün": 4305,
      "ordusu": 4306,
      "komün": 4307,
      "ışık": 4308,
      "mevcut": 4309,
      "i̇sveç": 4310,
      "kızıl": 4311,
      "1976": 4312,
      "konusu": 4313,
      "yarat": 4314,
      "alarında": 4315,
      "1971": 4316,
      "500": 4317,
      "89": 4318,
      "ita": 4319,
      "macar": 4320,
      "ney": 4321,
      "ou": 4322,
      "balık": 4323,
      "62": 4324,
      "hale": 4325,
      "sahipleri": 4326,
      "1972": 4327,
      "faaliyet": 4328,
      "stand": 4329,
      "ited": 4330,
      "hâ": 4331,
      "pren": 4332,
      "general": 4333,
      "imz": 4334,
      "geçemedi": 4335,
      "mesini": 4336,
      "uefa": 4337,
      "erken": 4338,
      "brezil": 4339,
      "yılın": 4340,
      "ümü": 4341,
      "teh": 4342,
      "liğini": 4343,
      "yanın": 4344,
      "jon": 4345,
      "larıyla": 4346,
      "başkanlığı": 4347,
      "bunu": 4348,
      "1968": 4349,
      "mol": 4350,
      "gor": 4351,
      "güneş": 4352,
      "söyledi": 4353,
      "notlar": 4354,
      "ple": 4355,
      "klas": 4356,
      "cd": 4357,
      "mac": 4358,
      "tren": 4359,
      "kamp": 4360,
      "isyen": 4361,
      "leyen": 4362,
      "02": 4363,
      "saha": 4364,
      "resm": 4365,
      "öncek": 4366,
      "kore": 4367,
      "yapımı": 4368,
      "suriye": 4369,
      "use": 4370,
      "yaygın": 4371,
      "sarı": 4372,
      "transfer": 4373,
      "endi": 4374,
      "pozisyon": 4375,
      "yapımcı": 4376,
      "ect": 4377,
      "72": 4378,
      "elerin": 4379,
      "bölümü": 4380,
      "etmiştir": 4381,
      "nden": 4382,
      "özgür": 4383,
      "71": 4384,
      "sezonunda": 4385,
      "katılım": 4386,
      "bakanlığı": 4387,
      "yöntem": 4388,
      "mühen": 4389,
      "yeş": 4390,
      "hukuk": 4391,
      "teor": 4392,
      "madığını": 4393,
      "ısı": 4394,
      "beşik": 4395,
      "was": 4396,
      "right": 4397,
      "liga": 4398,
      "okulu": 4399,
      "ace": 4400,
      "str": 4401,
      "müzi": 4402,
      "seslendir": 4403,
      "önceki": 4404,
      "işleri": 4405,
      "bot": 4406,
      "ladığı": 4407,
      "düzenlenen": 4408,
      "74": 4409,
      "ther": 4410,
      "kurulu": 4411,
      "press": 4412,
      "kardeş": 4413,
      "sonuçlar": 4414,
      "ling": 4415,
      "udi": 4416,
      "tart": 4417,
      "hist": 4418,
      "nan": 4419,
      "birbir": 4420,
      "parçası": 4421,
      "oda": 4422,
      "85": 4423,
      "rac": 4424,
      "i̇st": 4425,
      "gez": 4426,
      "row": 4427,
      "ray": 4428,
      "sed": 4429,
      "dönemde": 4430,
      "www": 4431,
      "alex": 4432,
      "müs": 4433,
      "ena": 4434,
      "koç": 4435,
      "edilmiş": 4436,
      "omet": 4437,
      "vis": 4438,
      "universit": 4439,
      "doğdu": 4440,
      "yapar": 4441,
      "uldu": 4442,
      "yav": 4443,
      "james": 4444,
      "şehrin": 4445,
      "başlangı": 4446,
      "asıyla": 4447,
      "1969": 4448,
      "kış": 4449,
      "dö": 4450,
      "izin": 4451,
      "herhangi": 4452,
      "sorun": 4453,
      "üyor": 4454,
      "rid": 4455,
      "ısında": 4456,
      "şe": 4457,
      "göç": 4458,
      "lüğ": 4459,
      "olabilir": 4460,
      "kray": 4461,
      "pak": 4462,
      "milliyet": 4463,
      "fotoğ": 4464,
      "leriyle": 4465,
      "hayatı": 4466,
      "sho": 4467,
      "beşiktaş": 4468,
      "lemek": 4469,
      "you": 4470,
      "kum": 4471,
      "ction": 4472,
      "robert": 4473,
      "king": 4474,
      "73": 4475,
      "cev": 4476,
      "yıllık": 4477,
      "hast": 4478,
      "fotoğraf": 4479,
      "gelenek": 4480,
      "amaç": 4481,
      "tartış": 4482,
      "mahkem": 4483,
      "konusunda": 4484,
      "kalkın": 4485,
      "bayr": 4486,
      "örneğin": 4487,
      "wood": 4488,
      "sefer": 4489,
      "cılar": 4490,
      "imleri": 4491,
      "atür": 4492,
      "ism": 4493,
      "bulunduğu": 4494,
      "ukray": 4495,
      "incel": 4496,
      "hiçbir": 4497,
      "hüs": 4498,
      "bitki": 4499,
      "98": 4500,
      "kadro": 4501,
      "sezonu": 4502,
      "londra": 4503,
      "indir": 4504,
      "kov": 4505,
      "sına": 4506,
      "oran": 4507,
      "pazar": 4508,
      "sum": 4509,
      "toplan": 4510,
      "asının": 4511,
      "pri": 4512,
      "yapmıştır": 4513,
      "tiği": 4514,
      "1967": 4515,
      "ever": 4516,
      "işlem": 4517,
      "vardı": 4518,
      "bulgar": 4519,
      "uygulam": 4520,
      "ceği": 4521,
      "hemen": 4522,
      "olacak": 4523,
      "eği": 4524,
      "with": 4525,
      "oyuncusu": 4526,
      "uçak": 4527,
      "lığını": 4528,
      "yarışması": 4529,
      "love": 4530,
      "ander": 4531,
      "prof": 4532,
      "uygun": 4533,
      "port": 4534,
      "ilçe": 4535,
      "politik": 4536,
      "single": 4537,
      "kullanılır": 4538,
      "bran": 4539,
      "jul": 4540,
      "bilgis": 4541,
      "ayında": 4542,
      "chel": 4543,
      "deli": 4544,
      "hane": 4545,
      "lerdir": 4546,
      "şan": 4547,
      "belediyesi": 4548,
      "ziy": 4549,
      "ital": 4550,
      "ilet": 4551,
      "ski": 4552,
      "united": 4553,
      "trab": 4554,
      "kuvvetleri": 4555,
      "zo": 4556,
      "kıyı": 4557,
      "çoğun": 4558,
      "resmî": 4559,
      "başarılı": 4560,
      "kurum": 4561,
      "çan": 4562,
      "trabzon": 4563,
      "metre": 4564,
      "portek": 4565,
      "tle": 4566,
      "itibarıyla": 4567,
      "portekiz": 4568,
      "anal": 4569,
      "bs": 4570,
      "cm": 4571,
      "barış": 4572,
      "polonya": 4573,
      "pin": 4574,
      "ges": 4575,
      "yılından": 4576,
      "mobil": 4577,
      "1966": 4578,
      "istiyan": 4579,
      "derece": 4580,
      "ehir": 4581,
      "ura": 4582,
      "geçmiş": 4583,
      "kalkınma": 4584,
      "laya": 4585,
      "kendisi": 4586,
      "fl": 4587,
      "pın": 4588,
      "hastan": 4589,
      "cher": 4590,
      "tük": 4591,
      "elektrik": 4592,
      "ğa": 4593,
      "avustralya": 4594,
      "air": 4595,
      "rec": 4596,
      "ekonomik": 4597,
      "güçlü": 4598,
      "ala": 4599,
      "milletvekil": 4600,
      "kimya": 4601,
      "lanır": 4602,
      "yık": 4603,
      "isa": 4604,
      "peter": 4605,
      "maçı": 4606,
      "nur": 4607,
      "şiir": 4608,
      "1950": 4609,
      "hüc": 4610,
      "sayıda": 4611,
      "eld": 4612,
      "fakültesi": 4613,
      "doğal": 4614,
      "sona": 4615,
      "jack": 4616,
      "hikâ": 4617,
      "mimar": 4618,
      "kırmız": 4619,
      "yabancı": 4620,
      "ledi": 4621,
      "ilebilir": 4622,
      "ence": 4623,
      "sus": 4624,
      "eu": 4625,
      "uth": 4626,
      "f2f2": 4627,
      "rev": 4628,
      "ğın": 4629,
      "eng": 4630,
      "raki": 4631,
      "görenler": 4632,
      "ekli": 4633,
      "mühendis": 4634,
      "university": 4635,
      "güvenlik": 4636,
      "gider": 4637,
      "dizisi": 4638,
      "yani": 4639,
      "ticaret": 4640,
      "phy": 4641,
      "şehri": 4642,
      "erz": 4643,
      "idae": 4644,
      "1964": 4645,
      "çalışan": 4646,
      "sonuc": 4647,
      "fri": 4648,
      "astr": 4649,
      "hır": 4650,
      "ğine": 4651,
      "dows": 4652,
      "yunanistan": 4653,
      "öğretim": 4654,
      "thom": 4655,
      "düğ": 4656,
      "doğum": 4657,
      "saray": 4658,
      "emen": 4659,
      "soci": 4660,
      "yana": 4661,
      "psik": 4662,
      "sıcak": 4663,
      "laştır": 4664,
      "asıllı": 4665,
      "başlat": 4666,
      "çün": 4667,
      "distan": 4668,
      "albümleri": 4669,
      "başlayan": 4670,
      "benz": 4671,
      "i̇ki": 4672,
      "uzay": 4673,
      "cılığı": 4674,
      "i̇spanyol": 4675,
      "ceğini": 4676,
      "deri": 4677,
      "rafik": 4678,
      "anya": 4679,
      "yurt": 4680,
      "yüzde": 4681,
      "org": 4682,
      "ımız": 4683,
      "95": 4684,
      "kemal": 4685,
      "başına": 4686,
      "mezar": 4687,
      "manı": 4688,
      "ktan": 4689,
      "ğına": 4690,
      "günümüzde": 4691,
      "ederek": 4692,
      "tanıt": 4693,
      "içeren": 4694,
      "cs": 4695,
      "bom": 4696,
      "köpr": 4697,
      "ilan": 4698,
      "meden": 4699,
      "hedef": 4700,
      "1961": 4701,
      "verildi": 4702,
      "atlet": 4703,
      "ameri": 4704,
      "kapsam": 4705,
      "hollanda": 4706,
      "antik": 4707,
      "öm": 4708,
      "üretim": 4709,
      "black": 4710,
      "çünkü": 4711,
      "muham": 4712,
      "böylece": 4713,
      "müslü": 4714,
      "köken": 4715,
      "enstit": 4716,
      "bill": 4717,
      "rul": 4718,
      "real": 4719,
      "olimpiyatları": 4720,
      "nokt": 4721,
      "sıral": 4722,
      "line": 4723,
      "olma": 4724,
      "kları": 4725,
      "cle": 4726,
      "malı": 4727,
      "avusturya": 4728,
      "kenin": 4729,
      "rum": 4730,
      "vic": 4731,
      "atif": 4732,
      "jean": 4733,
      "meclis": 4734,
      "ded": 4735,
      "masıyla": 4736,
      "müslüman": 4737,
      "gümüş": 4738,
      "iddia": 4739,
      "ct": 4740,
      "sıyla": 4741,
      "içerisinde": 4742,
      "çatış": 4743,
      "lop": 4744,
      "esiyle": 4745,
      "cağı": 4746,
      "bitir": 4747,
      "demokratik": 4748,
      "düşük": 4749,
      "elerinin": 4750,
      "ekip": 4751,
      "hristiyan": 4752,
      "kanada": 4753,
      "out": 4754,
      "değerlendir": 4755,
      "metal": 4756,
      "şid": 4757,
      "rem": 4758,
      "ğinde": 4759,
      "rapor": 4760,
      "yazarı": 4761,
      "i̇nsan": 4762,
      "jim": 4763,
      "cho": 4764,
      "belli": 4765,
      "çalıştı": 4766,
      "mahalledir": 4767,
      "seçimler": 4768,
      "deney": 4769,
      "rey": 4770,
      "gus": 4771,
      "taj": 4772,
      "hasan": 4773,
      "andre": 4774,
      "buz": 4775,
      "şam": 4776,
      "şeklinde": 4777,
      "anti": 4778,
      "bizans": 4779,
      "edik": 4780,
      "uel": 4781,
      "konum": 4782,
      "konser": 4783,
      "book": 4784,
      "ding": 4785,
      "fen": 4786,
      "keşf": 4787,
      "işle": 4788,
      "kızı": 4789,
      "parça": 4790,
      "maçta": 4791,
      "çalışma": 4792,
      "86": 4793,
      "hep": 4794,
      "eurov": 4795,
      "die": 4796,
      "bilgisayar": 4797,
      "elerde": 4798,
      "birey": 4799,
      "talık": 4800,
      "kamu": 4801,
      "milletvekili": 4802,
      "bos": 4803,
      "yalnızca": 4804,
      "87": 4805,
      "ore": 4806,
      "artık": 4807,
      "çay": 4808,
      "kahr": 4809,
      "1963": 4810,
      "kralı": 4811,
      "yıllarında": 4812,
      "oyunu": 4813,
      "yeşil": 4814,
      "sözleş": 4815,
      "çalışmaları": 4816,
      "isimli": 4817,
      "eurovision": 4818,
      "masından": 4819,
      "ich": 4820,
      "berlin": 4821,
      "olmuş": 4822,
      "dünyanın": 4823,
      "viç": 4824,
      "mann": 4825,
      "ej": 4826,
      "stadyumu": 4827,
      "ilerini": 4828,
      "tespit": 4829,
      "ndeki": 4830,
      "cus": 4831,
      "gitar": 4832,
      "voley": 4833,
      "div": 4834,
      "windows": 4835,
      "nar": 4836,
      "haline": 4837,
      "gs": 4838,
      "ks": 4839,
      "1945": 4840,
      "lenmiştir": 4841,
      "kahraman": 4842,
      "ento": 4843,
      "girdi": 4844,
      "oynadı": 4845,
      "katkı": 4846,
      "fre": 4847,
      "matem": 4848,
      "82": 4849,
      "görüntü": 4850,
      "şehirler": 4851,
      "radyo": 4852,
      "veri": 4853,
      "george": 4854,
      "kaf": 4855,
      "yönelik": 4856,
      "sha": 4857,
      "alarda": 4858,
      "kenti": 4859,
      "bilen": 4860,
      "yör": 4861,
      "isine": 4862,
      "oli": 4863,
      "lisesi": 4864,
      "low": 4865,
      "güncel": 4866,
      "senar": 4867,
      "tasarım": 4868,
      "http": 4869,
      "siyasetçi": 4870,
      "dışı": 4871,
      "ath": 4872,
      "84": 4873,
      "ett": 4874,
      "cur": 4875,
      "ülkenin": 4876,
      "ziyaret": 4877,
      "vatandaş": 4878,
      "1962": 4879,
      "okal": 4880,
      "isel": 4881,
      "yürüt": 4882,
      "forma": 4883,
      "96": 4884,
      "sayım": 4885,
      "km2": 4886,
      "ağı": 4887,
      "grand": 4888,
      "liste": 4889,
      "samsun": 4890,
      "piyasa": 4891,
      "sayf": 4892,
      "lenir": 4893,
      "von": 4894,
      "ved": 4895,
      "1928": 4896,
      "lilik": 4897,
      "tıp": 4898,
      "biçim": 4899,
      "hum": 4900,
      "yapıldı": 4901,
      "içi": 4902,
      "serg": 4903,
      "asit": 4904,
      "seçildi": 4905,
      "reg": 4906,
      "brıs": 4907,
      "anlamına": 4908,
      "öner": 4909,
      "cop": 4910,
      "cia": 4911,
      "aşır": 4912,
      "hızlı": 4913,
      "bulunmayan": 4914,
      "vik": 4915,
      "eriş": 4916,
      "super": 4917,
      "boğ": 4918,
      "alifor": 4919,
      "vit": 4920,
      "kıbrıs": 4921,
      "81": 4922,
      "satış": 4923,
      "ss": 4924,
      "adan": 4925,
      "tekli": 4926,
      "brahim": 4927,
      "chp": 4928,
      "haned": 4929,
      "kırmızı": 4930,
      "siyonu": 4931,
      "ukrayna": 4932,
      "ilmek": 4933,
      "92": 4934,
      "sahn": 4935,
      "ves": 4936,
      "hastalık": 4937,
      "aile": 4938,
      "çer": 4939,
      "antal": 4940,
      "ortal": 4941,
      "savunma": 4942,
      "festiv": 4943,
      "ndan": 4944,
      "yanında": 4945,
      "mişti": 4946,
      "tok": 4947,
      "biyet": 4948,
      "donan": 4949,
      "sonrası": 4950,
      "üyle": 4951,
      "festivali": 4952,
      "rie": 4953,
      "wat": 4954,
      "kutusu": 4955,
      "ington": 4956,
      "ceza": 4957,
      "clas": 4958,
      "ls": 4959,
      "izi": 4960,
      "taşın": 4961,
      "kardeşi": 4962,
      "sky": 4963,
      "ud": 4964,
      "organiz": 4965,
      "mezun": 4966,
      "telef": 4967,
      "metro": 4968,
      "kli": 4969,
      "işlet": 4970,
      "edil": 4971,
      "cisi": 4972,
      "uluğu": 4973,
      "jer": 4974,
      "hun": 4975,
      "milli": 4976,
      "felse": 4977,
      "eci": 4978,
      "dram": 4979,
      "tav": 4980,
      "kötü": 4981,
      "aliforni": 4982,
      "mun": 4983,
      "dördün": 4984,
      "ami": 4985,
      "sonrasında": 4986,
      "mıştı": 4987,
      "basın": 4988,
      "öğretmen": 4989,
      "county": 4990,
      "kılı": 4991,
      "oft": 4992,
      "bölgesinde": 4993,
      "pla": 4994,
      "normal": 4995,
      "83": 4996,
      "93": 4997,
      "derne": 4998,
      "ima": 4999,
      "\".": 5000,
      "çevir": 5001,
      "takip": 5002,
      "çarp": 5003,
      "ilere": 5004,
      "91": 5005,
      "derec": 5006,
      "oku": 5007,
      "yayınları": 5008,
      "baba": 5009,
      "meydana": 5010,
      "pub": 5011,
      "üye": 5012,
      "gos": 5013,
      "yıllarda": 5014,
      "vey": 5015,
      "haval": 5016,
      "diya": 5017,
      "araya": 5018,
      "cihaz": 5019,
      "cla": 5020,
      "niş": 5021,
      "frank": 5022,
      "öncesi": 5023,
      "tez": 5024,
      "dge": 5025,
      "komedi": 5026,
      "kova": 5027,
      "irak": 5028,
      "rit": 5029,
      "koş": 5030,
      "cık": 5031,
      "futbolcudur": 5032,
      "baskı": 5033,
      "jinal": 5034,
      "kah": 5035,
      "ula": 5036,
      "eleme": 5037,
      "anne": 5038,
      "internet": 5039,
      "değildir": 5040,
      "abet": 5041,
      "tamamen": 5042,
      "df": 5043,
      "kün": 5044,
      "charles": 5045,
      "alındı": 5046,
      "amacıyla": 5047,
      "enter": 5048,
      "bakır": 5049,
      "enerji": 5050,
      "şun": 5051,
      "nedenle": 5052,
      "lum": 5053,
      "gece": 5054,
      "west": 5055,
      "yeter": 5056,
      "lee": 5057,
      "hot": 5058,
      "belç": 5059,
      "richard": 5060,
      "antalya": 5061,
      "benim": 5062,
      "komutan": 5063,
      "sonuçları": 5064,
      "ilerek": 5065,
      "matematik": 5066,
      "oldukça": 5067,
      "biridir": 5068,
      "ğunu": 5069,
      "voleybol": 5070,
      "zir": 5071,
      "masında": 5072,
      "tarihli": 5073,
      "bistan": 5074,
      "max": 5075,
      "i̇sviç": 5076,
      "üd": 5077,
      "onur": 5078,
      "siyasetçiler": 5079,
      "parlam": 5080,
      "sunu": 5081,
      "yel": 5082,
      "kesin": 5083,
      "antlaş": 5084,
      "sok": 5085,
      "dun": 5086,
      "başında": 5087,
      "rekor": 5088,
      "tab": 5089,
      "tutuk": 5090,
      "1959": 5091,
      "aşk": 5092,
      "hakem": 5093,
      "popüler": 5094,
      "kullanım": 5095,
      "jun": 5096,
      "metin": 5097,
      "siy": 5098,
      "cuları": 5099,
      "kulübü": 5100,
      "havalim": 5101,
      "şarkıları": 5102,
      "espor": 5103,
      "üzerinden": 5104,
      "boyut": 5105,
      "stein": 5106,
      "paylaş": 5107,
      "alarak": 5108,
      "altına": 5109,
      "erişim": 5110,
      "canlandır": 5111,
      "music": 5112,
      "orman": 5113,
      "1958": 5114,
      "hali": 5115,
      "field": 5116,
      "mahalleleri": 5117,
      "nehri": 5118,
      "yılına": 5119,
      "94": 5120,
      "bara": 5121,
      "annesi": 5122,
      "şirketi": 5123,
      "duyur": 5124,
      "pir": 5125,
      "diren": 5126,
      "ox": 5127,
      "sion": 5128,
      "düğü": 5129,
      "verir": 5130,
      "old": 5131,
      "nasıl": 5132,
      "diş": 5133,
      "tiyatrosu": 5134,
      "durumu": 5135,
      "canlı": 5136,
      "iel": 5137,
      "kürt": 5138,
      "hüsey": 5139,
      "ğe": 5140,
      "test": 5141,
      "sovyetler": 5142,
      "emir": 5143,
      "aba": 5144,
      "mid": 5145,
      "alarını": 5146,
      "anim": 5147,
      "gas": 5148,
      "ure": 5149,
      "inç": 5150,
      "alığı": 5151,
      "geleneksel": 5152,
      "layı": 5153,
      "phi": 5154,
      "dizileri": 5155,
      "kupa": 5156,
      "shire": 5157,
      "başlık": 5158,
      "onik": 5159,
      "i̇brahim": 5160,
      "dördüncü": 5161,
      "zem": 5162,
      "sonucunda": 5163,
      "ear": 5164,
      "ilip": 5165,
      "muhammed": 5166,
      "kurtar": 5167,
      "vad": 5168,
      "yayınlandı": 5169,
      "tain": 5170,
      "istler": 5171,
      "yayınlanan": 5172,
      "saint": 5173,
      "yılmaz": 5174,
      "üstü": 5175,
      "davran": 5176,
      "aktif": 5177,
      "tarım": 5178,
      "şair": 5179,
      "tey": 5180,
      "filmin": 5181,
      "1940": 5182,
      "bron": 5183,
      "etkinlik": 5184,
      "devleti": 5185,
      "kolay": 5186,
      "lığına": 5187,
      "sanay": 5188,
      "hindistan": 5189,
      "gücü": 5190,
      "yahudi": 5191,
      "merkezli": 5192,
      "dönemi": 5193,
      "işi": 5194,
      "board": 5195,
      "orijinal": 5196,
      "galak": 5197,
      "yapmak": 5198,
      "oc": 5199,
      "kuruldu": 5200,
      "norveç": 5201,
      "fred": 5202,
      "brezilya": 5203,
      "zorunda": 5204,
      "kullanıcı": 5205,
      "mail": 5206,
      "amaz": 5207,
      "mini": 5208,
      "ihti": 5209,
      "ölçü": 5210,
      "atürk": 5211,
      "meyen": 5212,
      "seviy": 5213,
      "kalın": 5214,
      "jür": 5215,
      "kalı": 5216,
      "ott": 5217,
      "ismi": 5218,
      "siyah": 5219,
      "yıldır": 5220,
      "ografi": 5221,
      "ullah": 5222,
      "yeri": 5223,
      "adaylık": 5224,
      "kendisine": 5225,
      "chen": 5226,
      "dat": 5227,
      "record": 5228,
      "çuk": 5229,
      "müzesi": 5230,
      "murat": 5231,
      "1956": 5232,
      "vaz": 5233,
      "night": 5234,
      "ilerine": 5235,
      "gürcü": 5236,
      "onları": 5237,
      "imparator": 5238,
      "mekan": 5239,
      "lanma": 5240,
      "elli": 5241,
      "yazılım": 5242,
      "unvan": 5243,
      "meclisi": 5244,
      "miktar": 5245,
      "verdiği": 5246,
      "köydür": 5247,
      "mün": 5248,
      "derneği": 5249,
      "yönetimi": 5250,
      "pic": 5251,
      "iro": 5252,
      "etmektedir": 5253,
      "çesi": 5254,
      "plak": 5255,
      "dou": 5256,
      "alarının": 5257,
      "astronom": 5258,
      "iken": 5259,
      "esir": 5260,
      "vokal": 5261,
      "1920": 5262,
      "enstitüsü": 5263,
      "town": 5264,
      "cid": 5265,
      "başlar": 5266,
      "çet": 5267,
      "kişinin": 5268,
      "elerinde": 5269,
      "başlangıç": 5270,
      "amadı": 5271,
      "jant": 5272,
      "fan": 5273,
      "shi": 5274,
      "martin": 5275,
      "ted": 5276,
      "ülen": 5277,
      "ırken": 5278,
      "1957": 5279,
      "haft": 5280,
      "oynam": 5281,
      "pre": 5282,
      "erdoğan": 5283,
      "yazarları": 5284,
      "|}": 5285,
      "yüzyılın": 5286,
      "kitabı": 5287,
      "tre": 5288,
      "kelim": 5289,
      "kavram": 5290,
      "oni": 5291,
      "ınca": 5292,
      "düzey": 5293,
      "kurdu": 5294,
      "urn": 5295,
      "beste": 5296,
      "klasik": 5297,
      "ileş": 5298,
      "1955": 5299,
      "hesap": 5300,
      "bö": 5301,
      "çileri": 5302,
      "sından": 5303,
      "aster": 5304,
      "ig": 5305,
      "urum": 5306,
      "hüseyin": 5307,
      "yedi": 5308,
      "taydı": 5309,
      "400": 5310,
      "tit": 5311,
      "strat": 5312,
      "lisans": 5313,
      "mekte": 5314,
      "ball": 5315,
      "tanı": 5316,
      "1930": 5317,
      "arnav": 5318,
      "köyün": 5319,
      "ope": 5320,
      "başrol": 5321,
      "thomas": 5322,
      "mesiyle": 5323,
      "yası": 5324,
      "kanun": 5325,
      "arnavut": 5326,
      "***": 5327,
      "yaşamı": 5328,
      "1954": 5329,
      "ndaki": 5330,
      "xx": 5331,
      "işgal": 5332,
      "müm": 5333,
      "gözlem": 5334,
      "büyü": 5335,
      "sahne": 5336,
      "anton": 5337,
      "değişiklik": 5338,
      "300": 5339,
      "kurtul": 5340,
      "elerini": 5341,
      "cağını": 5342,
      "ihtiya": 5343,
      "sının": 5344,
      "eşi": 5345,
      "civil": 5346,
      "atatürk": 5347,
      "yeten": 5348,
      "duvar": 5349,
      "koz": 5350,
      "bursa": 5351,
      "yönünde": 5352,
      "seçmen": 5353,
      "maçında": 5354,
      "moskova": 5355,
      "dili": 5356,
      "bunlar": 5357,
      "lanması": 5358,
      "bilinir": 5359,
      "yanlı": 5360,
      "satın": 5361,
      "aziz": 5362,
      "ston": 5363,
      "lie": 5364,
      "liber": 5365,
      "flor": 5366,
      "1944": 5367,
      "cinsel": 5368,
      "liğinde": 5369,
      "alyalı": 5370,
      "i̇t": 5371,
      "lenmiş": 5372,
      "gelecek": 5373,
      "piyasaya": 5374,
      "site": 5375,
      "şarkısı": 5376,
      "şöyle": 5377,
      "müzisyen": 5378,
      "ilecek": 5379,
      "sekiz": 5380,
      "danim": 5381,
      "makta": 5382,
      "otur": 5383,
      "chester": 5384,
      "cul": 5385,
      "blu": 5386,
      "üle": 5387,
      "rah": 5388,
      "fah": 5389,
      "kütüp": 5390,
      "komisyon": 5391,
      "karşılık": 5392,
      "end": 5393,
      "yıldızı": 5394,
      "1946": 5395,
      "grubun": 5396,
      "nov": 5397,
      "kons": 5398,
      "urt": 5399,
      "cısı": 5400,
      "ılmaktadır": 5401,
      "ón": 5402,
      "tuğ": 5403,
      "tour": 5404,
      "hisar": 5405,
      "ister": 5406,
      "ić": 5407,
      "uyor": 5408,
      "zey": 5409,
      "akdeniz": 5410,
      "ılarak": 5411,
      "arjant": 5412,
      "ong": 5413,
      "....": 5414,
      "meleri": 5415,
      "attı": 5416,
      "alarına": 5417,
      "şiddet": 5418,
      "bölgede": 5419,
      "tipi": 5420,
      "well": 5421,
      "sivil": 5422,
      "arjantin": 5423,
      "ağaç": 5424,
      "adına": 5425,
      "ortam": 5426,
      "milletvekilleri": 5427,
      "ilerinin": 5428,
      "macaristan": 5429,
      "stüd": 5430,
      "kart": 5431,
      "ağa": 5432,
      "but": 5433,
      "başlamıştır": 5434,
      "kısm": 5435,
      "zel": 5436,
      "oluşum": 5437,
      "döndü": 5438,
      "ediyor": 5439,
      "dio": 5440,
      "çey": 5441,
      "yardımcısı": 5442,
      "dans": 5443,
      "çiç": 5444,
      "öne": 5445,
      "history": 5446,
      "saf": 5447,
      "dum": 5448,
      "ars": 5449,
      "aşağıdaki": 5450,
      "seçimleri": 5451,
      "pınar": 5452,
      "içerir": 5453,
      "ost": 5454,
      "ngc": 5455,
      "çevres": 5456,
      "tis": 5457,
      ")#": 5458,
      "büyükşehir": 5459,
      "elere": 5460,
      "acağı": 5461,
      "kapı": 5462,
      "lardı": 5463,
      "karı": 5464,
      "ailesi": 5465,
      "life": 5466,
      "belirli": 5467,
      "meslek": 5468,
      "zu": 5469,
      "fas": 5470,
      "show": 5471,
      "sir": 5472,
      "makam": 5473,
      "dağıt": 5474,
      "hp": 5475,
      "iyeti": 5476,
      "stüdyo": 5477,
      "án": 5478,
      "ordus": 5479,
      "derin": 5480,
      "cilt": 5481,
      "bununla": 5482,
      "ens": 5483,
      "kun": 5484,
      "olsa": 5485,
      "yıllar": 5486,
      "lenin": 5487,
      "otomobil": 5488,
      "1941": 5489,
      "ald": 5490,
      "kör": 5491,
      "yse": 5492,
      "ilim": 5493,
      "lamak": 5494,
      "aktar": 5495,
      "tian": 5496,
      "1953": 5497,
      "yazdığı": 5498,
      "dij": 5499,
      "ea": 5500,
      "kişisel": 5501,
      "eğer": 5502,
      "ics": 5503,
      "american": 5504,
      "fek": 5505,
      "ters": 5506,
      "ius": 5507,
      "kısmı": 5508,
      "kendini": 5509,
      "ruh": 5510,
      "olojisi": 5511,
      "ayır": 5512,
      "gust": 5513,
      "komünist": 5514,
      "müziği": 5515,
      "süreç": 5516,
      "zengin": 5517,
      "milyar": 5518,
      "rap": 5519,
      "cup": 5520,
      "eylem": 5521,
      "i̇sviçre": 5522,
      "som": 5523,
      "alp": 5524,
      "tahmin": 5525,
      "jose": 5526,
      "ella": 5527,
      "taban": 5528,
      "standart": 5529,
      "performans": 5530,
      "tiğini": 5531,
      "krallığı": 5532,
      "post": 5533,
      "cumhurbaşkanı": 5534,
      "rip": 5535,
      "sert": 5536,
      "1952": 5537,
      "danış": 5538,
      "alanında": 5539,
      "nev": 5540,
      "şer": 5541,
      "dikten": 5542,
      "leyman": 5543,
      "doğrudan": 5544,
      "dini": 5545,
      "gürc": 5546,
      "yatır": 5547,
      "evren": 5548,
      "key": 5549,
      "sürekli": 5550,
      "1948": 5551,
      "wol": 5552,
      "olmasına": 5553,
      "parlamento": 5554,
      "angeles": 5555,
      "ressam": 5556,
      "atom": 5557,
      "turnuv": 5558,
      "dolar": 5559,
      "bilimsel": 5560,
      "yarışma": 5561,
      "sika": 5562,
      "(\"": 5563,
      "rick": 5564,
      "havalimanı": 5565,
      "1939": 5566,
      "nerede": 5567,
      "kararı": 5568,
      "award": 5569,
      "iddi": 5570,
      "slov": 5571,
      "askerî": 5572,
      "able": 5573,
      "lılık": 5574,
      "kilisesi": 5575,
      "premi": 5576,
      "halinde": 5577,
      "zam": 5578,
      "illa": 5579,
      "ömer": 5580,
      "teri": 5581,
      "gürcistan": 5582,
      "whit": 5583,
      "indi": 5584,
      "gy": 5585,
      "1943": 5586,
      "belçika": 5587,
      "çıkışlı": 5588,
      "madrid": 5589,
      "zat": 5590,
      "yken": 5591,
      "açıkladı": 5592,
      "muhareb": 5593,
      "çoğunluk": 5594,
      "milliyetçi": 5595,
      "larındaki": 5596,
      "bazen": 5597,
      "ülü": 5598,
      "ölümü": 5599,
      "üzerindeki": 5600,
      "ebe": 5601,
      "fatih": 5602,
      "uçuş": 5603,
      "fk": 5604,
      "pos": 5605,
      "zafer": 5606,
      "menin": 5607,
      "âr": 5608,
      "desi": 5609,
      "kayna": 5610,
      "konya": 5611,
      "time": 5612,
      "hall": 5613,
      "parish": 5614,
      "süleyman": 5615,
      "bahar": 5616,
      "defa": 5617,
      "1951": 5618,
      "978": 5619,
      "120": 5620,
      "bağlantı": 5621,
      "nap": 5622,
      "bc": 5623,
      "251": 5624,
      "gec": 5625,
      "oria": 5626,
      "era": 5627,
      "undaki": 5628,
      "inae": 5629,
      "sci": 5630,
      "olik": 5631,
      "0000": 5632,
      "kaydet": 5633,
      "devrim": 5634,
      "amak": 5635,
      "dijital": 5636,
      "galibiyet": 5637,
      "dre": 5638,
      "kamer": 5639,
      "medya": 5640,
      "ayrıldı": 5641,
      "belg": 5642,
      "yapmış": 5643,
      "kazak": 5644,
      "mith": 5645,
      "ansı": 5646,
      "dakik": 5647,
      "micros": 5648,
      "i̇rlanda": 5649,
      "ach": 5650,
      "mümkün": 5651,
      "eğitimi": 5652,
      "kılıç": 5653,
      "sivas": 5654,
      "köyler": 5655,
      "ücret": 5656,
      "başkenti": 5657,
      "çevre": 5658,
      "liler": 5659,
      "babas": 5660,
      "gizli": 5661,
      "bölgesel": 5662,
      "lâ": 5663,
      "hom": 5664,
      "1936": 5665,
      "plas": 5666,
      "oluşur": 5667,
      "açıl": 5668,
      "karşısında": 5669,
      "luğunda": 5670,
      "fif": 5671,
      "gösterir": 5672,
      "jor": 5673,
      "ese": 5674,
      "konuk": 5675,
      "programı": 5676,
      "cre": 5677,
      "ücü": 5678,
      "ündeki": 5679,
      "redir": 5680,
      "profesör": 5681,
      "150": 5682,
      "arkadaşı": 5683,
      "federasyonu": 5684,
      "1942": 5685,
      "pon": 5686,
      "işaret": 5687,
      "cusu": 5688,
      "azı": 5689,
      "yüzey": 5690,
      "etmiş": 5691,
      "ern": 5692,
      "sig": 5693,
      "muha": 5694,
      "rolü": 5695,
      "kanat": 5696,
      "pra": 5697,
      "yayıl": 5698,
      "tival": 5699,
      "\")": 5700,
      "çoğ": 5701,
      "endü": 5702,
      "eleştirmen": 5703,
      "dit": 5704,
      "international": 5705,
      "terci": 5706,
      "korun": 5707,
      "cra": 5708,
      "adana": 5709,
      "wis": 5710,
      "ral": 5711,
      "yukarı": 5712,
      "meksika": 5713,
      "ai": 5714,
      "laz": 5715,
      "alandı": 5716,
      "eserleri": 5717,
      "baz": 5718,
      "yaşadı": 5719,
      "festival": 5720,
      "taşım": 5721,
      "davi": 5722,
      "oluşturulan": 5723,
      "ortalama": 5724,
      "ting": 5725,
      "şık": 5726,
      "akademisi": 5727,
      "1949": 5728,
      "lus": 5729,
      "küçükresim": 5730,
      "ier": 5731,
      "toplantı": 5732,
      "ıştı": 5733,
      "hakkı": 5734,
      "itesi": 5735,
      "ermeni": 5736,
      "şarkılar": 5737,
      "çelik": 5738,
      "kişilik": 5739,
      "kariyerine": 5740,
      "forvet": 5741,
      "layarak": 5742,
      "bül": 5743,
      "dikleri": 5744,
      "mensu": 5745,
      "elç": 5746,
      "hikây": 5747,
      "yasak": 5748,
      "bt": 5749,
      "korum": 5750,
      "ılabilir": 5751,
      "pilot": 5752,
      "hırvat": 5753,
      "pel": 5754,
      "louis": 5755,
      "bı": 5756,
      "kaliforni": 5757,
      "geçersiz": 5758,
      "ırlar": 5759,
      "alınan": 5760,
      "gazi": 5761,
      "etim": 5762,
      "frac": 5763,
      "alek": 5764,
      "ekran": 5765,
      "asl": 5766,
      "bakım": 5767,
      "dost": 5768,
      "yerek": 5769,
      "çağı": 5770,
      "pier": 5771,
      "edin": 5772,
      "cıları": 5773,
      "miyor": 5774,
      "uygulan": 5775,
      "yönetic": 5776,
      "1947": 5777,
      "sorumlu": 5778,
      "onlar": 5779,
      "elendi": 5780,
      "rö": 5781,
      "sandık": 5782,
      "billboard": 5783,
      "kaliforniya": 5784,
      "cilik": 5785,
      "clu": 5786,
      "ys": 5787,
      "kos": 5788,
      "mektu": 5789,
      "ğından": 5790,
      "hayatını": 5791,
      "gençlik": 5792,
      "1938": 5793,
      "sosyalist": 5794,
      "lidir": 5795,
      "ato": 5796,
      "çam": 5797,
      "kurucu": 5798,
      "kutsal": 5799,
      "yerleştir": 5800,
      "aktör": 5801,
      "yemek": 5802,
      "onay": 5803,
      "operasyon": 5804,
      "etkili": 5805,
      "ceph": 5806,
      "microsoft": 5807,
      "henry": 5808,
      "ous": 5809,
      "feri": 5810,
      "dri": 5811,
      "ux": 5812,
      "anna": 5813,
      "almak": 5814,
      "skor": 5815,
      "bunların": 5816,
      "turu": 5817,
      "heykel": 5818,
      "şampiyonlar": 5819,
      "disi": 5820,
      "ade": 5821,
      "konfer": 5822,
      "sektör": 5823,
      "ship": 5824,
      "liğe": 5825,
      "records": 5826,
      "north": 5827,
      "hükûmeti": 5828,
      "cileri": 5829,
      "wash": 5830,
      "{|": 5831,
      "görevi": 5832,
      "etmeye": 5833,
      "ükle": 5834,
      "bölün": 5835,
      "kök": 5836,
      "uzman": 5837,
      "fı": 5838,
      "i̇smail": 5839,
      "yazdı": 5840,
      "ings": 5841,
      "(),": 5842,
      "kuşat": 5843,
      "ene": 5844,
      "diyar": 5845,
      "kasab": 5846,
      "fol": 5847,
      "koca": 5848,
      "selçuk": 5849,
      "lenmesi": 5850,
      "dd": 5851,
      "ica": 5852,
      "amatör": 5853,
      "lığa": 5854,
      "kendisini": 5855,
      "kanıt": 5856,
      "süt": 5857,
      "yapılmıştır": 5858,
      "kültürel": 5859,
      "tarihleri": 5860,
      "sayılı": 5861,
      "nem": 5862,
      "dipl": 5863,
      "erzurum": 5864,
      "{\\": 5865,
      "i̇dar": 5866,
      "just": 5867,
      "meş": 5868,
      "antren": 5869,
      "lılar": 5870,
      "hala": 5871,
      "kalp": 5872,
      "uğra": 5873,
      "gay": 5874,
      "fal": 5875,
      "civar": 5876,
      "günlük": 5877,
      "çö": 5878,
      "artır": 5879,
      "aksiyon": 5880,
      "she": 5881,
      "studi": 5882,
      "dışişleri": 5883,
      "box": 5884,
      "1918": 5885,
      "ult": 5886,
      "tamamladı": 5887,
      "gezeg": 5888,
      "person": 5889,
      "tehlik": 5890,
      "iklet": 5891,
      "gusal": 5892,
      "imzal": 5893,
      "kural": 5894,
      "cast": 5895,
      "dp": 5896,
      "mağlu": 5897,
      "avu": 5898,
      "gat": 5899,
      "diğinde": 5900,
      "yn": 5901,
      "gösteren": 5902,
      "ölçüde": 5903,
      "direktörleri": 5904,
      "ilişkin": 5905,
      "terör": 5906,
      "dünyaya": 5907,
      "köyü": 5908,
      "aşırı": 5909,
      "rahat": 5910,
      "daniel": 5911,
      "till": 5912,
      "hafif": 5913,
      "anth": 5914,
      "young": 5915,
      "meydan": 5916,
      "leyi": 5917,
      "bisiklet": 5918,
      "ekonomi": 5919,
      "müdürlüğü": 5920,
      "kre": 5921,
      "now": 5922,
      "gri": 5923,
      "birinc": 5924,
      "yerli": 5925,
      "ology": 5926,
      "arke": 5927,
      "jüri": 5928,
      "dakika": 5929,
      "hakim": 5930,
      "hir": 5931,
      "''": 5932,
      "i̇skoç": 5933,
      "odak": 5934,
      "phil": 5935,
      "110": 5936,
      "house": 5937,
      "prens": 5938,
      "üniversite": 5939,
      "cht": 5940,
      "belirtti": 5941,
      "ark": 5942,
      "diplom": 5943,
      "hakları": 5944,
      "adığı": 5945,
      "dere": 5946,
      "adası": 5947,
      "sto": 5948,
      "2024": 5949,
      "katal": 5950,
      "sayesinde": 5951,
      "bür": 5952,
      "britanya": 5953,
      "göstermektedir": 5954,
      "yazarlar": 5955,
      "prem": 5956,
      "pey": 5957,
      "pik": 5958,
      "demokras": 5959,
      "ıldığı": 5960,
      "koruma": 5961,
      "pes": 5962,
      "champ": 5963,
      "başvur": 5964,
      "yoluyla": 5965,
      "hac": 5966,
      "sekret": 5967,
      "karma": 5968,
      "hatta": 5969,
      "dokuz": 5970,
      "akar": 5971,
      "edilmektedir": 5972,
      "https": 5973,
      "itik": 5974,
      "koşul": 5975,
      "stre": 5976,
      "yerini": 5977,
      "gazetec": 5978,
      "gitti": 5979,
      "ase": 5980,
      "bridge": 5981,
      "örüm": 5982,
      "küm": 5983,
      "bronz": 5984,
      "aut": 5985,
      "mag": 5986,
      "şampiyonu": 5987,
      "protes": 5988,
      "elerine": 5989,
      "lıkla": 5990,
      "hücr": 5991,
      "durumda": 5992,
      "washington": 5993,
      "yaşar": 5994,
      "lish": 5995,
      "konseyi": 5996,
      "numar": 5997,
      "drama": 5998,
      "grafi": 5999,
      "uru": 6000,
      "adamı": 6001,
      "isidir": 6002,
      "omen": 6003,
      "finalde": 6004,
      "süren": 6005,
      "birleştir": 6006,
      "tifak": 6007,
      "maden": 6008,
      "yade": 6009,
      "zarar": 6010,
      "over": 6011,
      "kaybetti": 6012,
      "müsa": 6013,
      "avukat": 6014,
      "laması": 6015,
      "anlar": 6016,
      "light": 6017,
      "silahlı": 6018,
      "çeyrek": 6019,
      "başkanları": 6020,
      "nü": 6021,
      "kapat": 6022,
      "oynanan": 6023,
      "etme": 6024,
      "smith": 6025,
      "evr": 6026,
      "yönettiği": 6027,
      "istin": 6028,
      "çocuğu": 6029,
      "akıl": 6030,
      "danimarka": 6031,
      "olas": 6032,
      "fonk": 6033,
      "sebep": 6034,
      "sv": 6035,
      "stal": 6036,
      "güc": 6037,
      "that": 6038,
      "sap": 6039,
      "kus": 6040,
      "kütüphan": 6041,
      "nokta": 6042,
      "açısından": 6043,
      "ax": 6044,
      "çekildi": 6045,
      "mr": 6046,
      "idari": 6047,
      "buk": 6048,
      "girişim": 6049,
      "sporcu": 6050,
      "şik": 6051,
      "özellikleri": 6052,
      "maçlar": 6053,
      "1935": 6054,
      "teslim": 6055,
      "efendi": 6056,
      "eyaletinde": 6057,
      "ix": 6058,
      "yem": 6059,
      "haç": 6060,
      "kurulmuştur": 6061,
      "kısım": 6062,
      "viy": 6063,
      "dim": 6064,
      "landalı": 6065,
      "yapısı": 6066,
      "iller": 6067,
      "teles": 6068,
      "örümcek": 6069,
      "class": 6070,
      "lideri": 6071,
      "taşıyan": 6072,
      "hatır": 6073,
      "okyan": 6074,
      "ky": 6075,
      "sporcular": 6076,
      "arada": 6077,
      "sıt": 6078,
      "makin": 6079,
      "edward": 6080,
      "katolik": 6081,
      "tern": 6082,
      "götür": 6083,
      "down": 6084,
      "ettir": 6085,
      "meg": 6086,
      "ei": 6087,
      "lediği": 6088,
      "yavaş": 6089,
      "tarz": 6090,
      "bulgaristan": 6091,
      ")\"": 6092,
      "1934": 6093,
      "bad": 6094,
      "kod": 6095,
      "tercih": 6096,
      "yoktur": 6097,
      "aktiv": 6098,
      "ов": 6099,
      "başlı": 6100,
      "colle": 6101,
      "ülkede": 6102,
      "uss": 6103,
      "1937": 6104,
      "muharebesi": 6105,
      "joseph": 6106,
      "kk": 6107,
      "1933": 6108,
      "yatırım": 6109,
      "ticari": 6110,
      "camii": 6111,
      "til": 6112,
      "bundan": 6113,
      "kolek": 6114,
      "yayımlanan": 6115,
      "ilinde": 6116,
      "yusu": 6117,
      "dile": 6118,
      "hür": 6119,
      "800": 6120,
      "fos": 6121,
      "çor": 6122,
      "leh": 6123,
      "malzem": 6124,
      "kullanarak": 6125,
      "yarar": 6126,
      "das": 6127,
      "ations": 6128,
      "cov": 6129,
      "ony": 6130,
      "aslında": 6131,
      "yılının": 6132,
      "bilimler": 6133,
      "hint": 6134,
      "köyleri": 6135,
      "grafik": 6136,
      "dergisi": 6137,
      "600": 6138,
      "kaybet": 6139,
      "ilgi": 6140,
      "olmadığını": 6141,
      "terim": 6142,
      "terk": 6143,
      "sürüm": 6144,
      "rin": 6145,
      "mary": 6146,
      "chan": 6147,
      "düşman": 6148,
      "i̇h": 6149,
      "yayınlan": 6150,
      "sub": 6151,
      "nec": 6152,
      "çizgi": 6153,
      "nün": 6154,
      "hop": 6155,
      "itir": 6156,
      "andro": 6157,
      "hapis": 6158,
      "francis": 6159,
      "ilçesinde": 6160,
      "retrie": 6161,
      "anav": 6162,
      "format": 6163,
      "sürec": 6164,
      "gurbetçiler": 6165,
      "ville": 6166,
      "doğrul": 6167,
      "retrieved": 6168,
      "orhan": 6169,
      "mesaf": 6170,
      "aşam": 6171,
      "istat": 6172,
      "sanayi": 6173,
      "neredeyse": 6174,
      "eyaleti": 6175,
      "proto": 6176,
      "rakip": 6177,
      "yanlış": 6178,
      "platform": 6179,
      "cir": 6180,
      "ıma": 6181,
      "tören": 6182,
      "geçiş": 6183,
      "sırp": 6184,
      "under": 6185,
      "andı": 6186,
      "ns": 6187,
      "etap": 6188,
      "adım": 6189,
      "nba": 6190,
      "alg": 6191,
      "ille": 6192,
      "tic": 6193,
      "i̇stat": 6194,
      "bilgiler": 6195,
      "etkisi": 6196,
      "ılığı": 6197,
      "lığın": 6198,
      "aracılığı": 6199,
      "fransızca": 6200,
      "vs": 6201,
      "live": 6202,
      "takımın": 6203,
      "yasal": 6204,
      "edilmesi": 6205,
      "rena": 6206,
      "kraliyet": 6207,
      "fikir": 6208,
      "sabit": 6209,
      "bölümünde": 6210,
      "grupları": 6211,
      "1919": 6212,
      "politika": 6213,
      "mesinin": 6214,
      "mavi": 6215,
      "besi": 6216,
      "orada": 6217,
      "tılı": 6218,
      "bün": 6219,
      "adaları": 6220,
      "uvar": 6221,
      "1921": 6222,
      "tabi": 6223,
      "liğine": 6224,
      "rü": 6225,
      "i̇nter": 6226,
      "ess": 6227,
      "talep": 6228,
      "law": 6229,
      "ruk": 6230,
      "tol": 6231,
      "ıntı": 6232,
      "i̇sim": 6233,
      "teşkil": 6234,
      "offi": 6235,
      "bulut": 6236,
      "kilomet": 6237,
      "1927": 6238,
      "çoğunlukla": 6239,
      "ico": 6240,
      "oh": 6241,
      "via": 6242,
      "mikro": 6243,
      "kurgu": 6244,
      "etkilen": 6245,
      "tedavi": 6246,
      "dolayısıyla": 6247,
      "our": 6248,
      "kont": 6249,
      "adında": 6250,
      "sağlar": 6251,
      "tos": 6252,
      "wan": 6253,
      "bour": 6254,
      "size": 6255,
      "amet": 6256,
      "sanatçısı": 6257,
      "lé": 6258,
      "üniversitesinde": 6259,
      "251c": 6260,
      "arşi": 6261,
      "başta": 6262,
      "da251c": 6263,
      "foot": 6264,
      "wik": 6265,
      "ğinin": 6266,
      "açıklama": 6267,
      "age": 6268,
      "williams": 6269,
      "ture": 6270,
      "ins": 6271,
      "kabil": 6272,
      "ophy": 6273,
      "bia": 6274,
      "ning": 6275,
      "nel": 6276,
      "lili": 6277,
      "ск": 6278,
      "soğu": 6279,
      "big": 6280,
      "gören": 6281,
      "açtı": 6282,
      "müda": 6283,
      "topluluğu": 6284,
      "1925": 6285,
      "yayınladı": 6286,
      "pho": 6287,
      "uyordu": 6288,
      "tesis": 6289,
      "matik": 6290,
      "katılmadı": 6291,
      "şahin": 6292,
      "atlan": 6293,
      "stantin": 6294,
      "sınıflandır": 6295,
      "ahmed": 6296,
      "wen": 6297,
      "ons": 6298,
      "fiziksel": 6299,
      "1923": 6300,
      "hazırlık": 6301,
      "geçmektedir": 6302,
      "çiçek": 6303,
      "alma": 6304,
      "premier": 6305,
      "tuz": 6306,
      "lot": 6307,
      "ğinden": 6308,
      "belediyespor": 6309,
      "çeş": 6310,
      "ring": 6311,
      "onların": 6312,
      "yıldırım": 6313,
      "noktası": 6314,
      "diyarbakır": 6315,
      "green": 6316,
      "hükümdar": 6317,
      "hafız": 6318,
      "olmadığı": 6319,
      "1922": 6320,
      "etraf": 6321,
      "put": 6322,
      "maked": 6323,
      "isten": 6324,
      "peş": 6325,
      "bayrak": 6326,
      "durdur": 6327,
      "arya": 6328,
      "almış": 6329,
      "lamıştır": 6330,
      "mont": 6331,
      "cası": 6332,
      "tablo": 6333,
      "ayrıl": 6334,
      "yusuf": 6335,
      "yarg": 6336,
      "kayded": 6337,
      "f2f2f2": 6338,
      "gab": 6339,
      "ındır": 6340,
      "1931": 6341,
      "hard": 6342,
      "на": 6343,
      "1924": 6344,
      "ayn": 6345,
      "oğul": 6346,
      "aslan": 6347,
      "yüzölç": 6348,
      "times": 6349,
      "bilgileri": 6350,
      "uri": 6351,
      "cos": 6352,
      "manchester": 6353,
      "i̇lçe": 6354,
      "ст": 6355,
      "nö": 6356,
      "takımına": 6357,
      "giren": 6358,
      "ciddi": 6359,
      "ré": 6360,
      "uydu": 6361,
      "beşinci": 6362,
      "zan": 6363,
      "ğının": 6364,
      "romanya": 6365,
      "oyu": 6366,
      "serisi": 6367,
      "isyan": 6368,
      "ağırlık": 6369,
      "kurumu": 6370,
      "bük": 6371,
      "düştü": 6372,
      "abilecek": 6373,
      "akademi": 6374,
      "nükle": 6375,
      "teknoloji": 6376,
      "söyler": 6377,
      "rast": 6378,
      "cad": 6379,
      "gia": 6380,
      "ew": 6381,
      "eskiş": 6382,
      "pul": 6383,
      "finlan": 6384,
      "yerde": 6385,
      "eskişehir": 6386,
      "macer": 6387,
      "kentinde": 6388,
      "ograf": 6389,
      "sara": 6390,
      "mersin": 6391,
      "eliği": 6392,
      "tus": 6393,
      "peri": 6394,
      "denk": 6395,
      "bru": 6396,
      "çanak": 6397,
      "lic": 6398,
      "süz": 6399,
      "ân": 6400,
      "anavatan": 6401,
      "champion": 6402,
      "ikti": 6403,
      "pot": 6404,
      "tedav": 6405,
      "batısında": 6406,
      "ful": 6407,
      "1914": 6408,
      "müsabak": 6409,
      "oynadığı": 6410,
      "kıl": 6411,
      "giden": 6412,
      "sembol": 6413,
      "redirect": 6414,
      "soru": 6415,
      "şimdi": 6416,
      "refer": 6417,
      ");": 6418,
      "euro": 6419,
      "sonu": 6420,
      "got": 6421,
      "sayfa": 6422,
      "enerj": 6423,
      "latin": 6424,
      "nehir": 6425,
      "genin": 6426,
      "ales": 6427,
      "katılan": 6428,
      "kayıp": 6429,
      "elektronik": 6430,
      "akya": 6431,
      "mamış": 6432,
      "ilerle": 6433,
      "topluluk": 6434,
      "yetiştir": 6435,
      "henüz": 6436,
      "bitk": 6437,
      "edia": 6438,
      "kullanımı": 6439,
      "camp": 6440,
      "seyir": 6441,
      "komisyonu": 6442,
      "abdullah": 6443,
      "1926": 6444,
      "harf": 6445,
      "1932": 6446,
      "uygulama": 6447,
      "döv": 6448,
      "oth": 6449,
      "vali": 6450,
      "defans": 6451,
      "niyet": 6452,
      "ildiği": 6453,
      "dinam": 6454,
      "etkil": 6455,
      "davranış": 6456,
      "gönül": 6457,
      "yüzden": 6458,
      "özerk": 6459,
      "opera": 6460,
      "1912": 6461,
      "kurulmuş": 6462,
      "telefon": 6463,
      "kemer": 6464,
      "sea": 6465,
      "rowspan": 6466,
      "station": 6467,
      "bob": 6468,
      "anni": 6469,
      "memiş": 6470,
      "leon": 6471,
      "gördü": 6472,
      "alignleft": 6473,
      "basit": 6474,
      "yetkil": 6475,
      "kullandı": 6476,
      "istasyon": 6477,
      "teklif": 6478,
      "ikalı": 6479,
      "sağlamak": 6480,
      "vah": 6481,
      "yaptık": 6482,
      "evli": 6483,
      "gazetesi": 6484,
      "öldürül": 6485,
      "petrol": 6486,
      "çekir": 6487,
      "lal": 6488,
      "hidro": 6489,
      "versiyon": 6490,
      "kayıtlarında": 6491,
      "sırasıyla": 6492,
      "yönetmeni": 6493,
      "olmaya": 6494,
      "manas": 6495,
      "konuştu": 6496,
      "1929": 6497,
      "maktaydı": 6498,
      "mesaj": 6499,
      "i̇statistik": 6500,
      "aranan": 6501,
      "prote": 6502,
      "hareketi": 6503,
      "hanedanı": 6504,
      "lenme": 6505,
      "sırbistan": 6506,
      "250": 6507,
      "johan": 6508,
      "olduğuna": 6509,
      "elerinden": 6510,
      "yükseldi": 6511,
      "acı": 6512,
      "bine": 6513,
      "belgesel": 6514,
      "başarısız": 6515,
      "geçici": 6516,
      "vanya": 6517,
      "çın": 6518,
      "gerekli": 6519,
      "px": 6520,
      "egemen": 6521,
      "lerce": 6522,
      "ağan": 6523,
      "ril": 6524,
      "vla": 6525,
      "geçirdi": 6526,
      "gençler": 6527,
      "isimler": 6528,
      "iso": 6529,
      "bazıları": 6530,
      "ugh": 6531,
      "yaptır": 6532,
      "bm": 6533,
      "oluşturul": 6534,
      "cker": 6535,
      "finlandiya": 6536,
      "sabah": 6537,
      "kazanmıştır": 6538,
      "fiyat": 6539,
      "doğusunda": 6540,
      "moğ": 6541,
      "aracılığıyla": 6542,
      "esas": 6543,
      "ceae": 6544,
      "günde": 6545,
      "karadeniz": 6546,
      "milletler": 6547,
      "oxford": 6548,
      "mahallesi": 6549,
      "leyici": 6550,
      "sokak": 6551,
      "vd": 6552,
      "stra": 6553,
      "non": 6554,
      "önünde": 6555,
      "moğol": 6556,
      "etnik": 6557,
      "first": 6558,
      "bern": 6559,
      "biyle": 6560,
      "kanser": 6561,
      "karay": 6562,
      "evin": 6563,
      "blem": 6564,
      "ora": 6565,
      "filmde": 6566,
      "yılda": 6567,
      "altern": 6568,
      "mesinden": 6569,
      "araştırmalar": 6570,
      "eva": 6571,
      "federal": 6572,
      "emre": 6573,
      "kırım": 6574,
      "ömür": 6575,
      "entertain": 6576,
      "gelmiştir": 6577,
      "insanları": 6578,
      "chica": 6579,
      "kategor": 6580,
      "maria": 6581,
      "omi": 6582,
      "mür": 6583,
      "good": 6584,
      "çapında": 6585,
      "biraz": 6586,
      "içeri": 6587,
      "kullanıldı": 6588,
      "şark": 6589,
      "türkmen": 6590,
      "sınırları": 6591,
      "club": 6592,
      "prix": 6593,
      "ela": 6594,
      "prim": 6595,
      "aa": 6596,
      "sinem": 6597,
      "ão": 6598,
      "kaynaklar": 6599,
      "yapılar": 6600,
      "zayı": 6601,
      "bok": 6602,
      "ole": 6603,
      "culuk": 6604,
      "had": 6605,
      "seçilen": 6606,
      "130": 6607,
      "salonu": 6608,
      "hoş": 6609,
      "gazian": 6610,
      "jes": 6611,
      "turnuva": 6612,
      ".'": 6613,
      "liğin": 6614,
      "asındaki": 6615,
      "idar": 6616,
      "dip": 6617,
      "gaziantep": 6618,
      "cyc": 6619,
      "ilaç": 6620,
      "yaşadığı": 6621,
      "ogle": 6622,
      "subay": 6623,
      "ques": 6624,
      "ölü": 6625,
      "ıyordu": 6626,
      "ein": 6627,
      "dönemin": 6628,
      "üstün": 6629,
      "balkan": 6630,
      "içindeki": 6631,
      "stil": 6632,
      "sağlayan": 6633,
      "organizasyon": 6634,
      "kimyasal": 6635,
      "düşünül": 6636,
      "tokyo": 6637,
      "birim": 6638,
      "temiz": 6639,
      "elt": 6640,
      "feat": 6641,
      "glo": 6642,
      "detay": 6643,
      "kurtuluş": 6644,
      "şart": 6645,
      "i̇nternet": 6646,
      "şem": 6647,
      "çözüm": 6648,
      "clar": 6649,
      "yapılmış": 6650,
      "hükümet": 6651,
      "efsan": 6652,
      "sayımına": 6653,
      "zayıf": 6654,
      "hap": 6655,
      "fabrik": 6656,
      "dist": 6657,
      "güncelleme": 6658,
      "piyan": 6659,
      "lev": 6660,
      "işe": 6661,
      "gut": 6662,
      "nih": 6663,
      "kasaba": 6664,
      "alış": 6665,
      "turizm": 6666,
      "arapça": 6667,
      "cının": 6668,
      "kullanılmaktadır": 6669,
      "py": 6670,
      "almanca": 6671,
      "köprü": 6672,
      "stir": 6673,
      "kraliç": 6674,
      "sof": 6675,
      "adalı": 6676,
      "bahç": 6677,
      "olaylar": 6678,
      "ölümünden": 6679,
      "buldu": 6680,
      "ctor": 6681,
      "hü": 6682,
      "filistin": 6683,
      "şehrinde": 6684,
      "sia": 6685,
      "cro": 6686,
      "last": 6687,
      "entertainment": 6688,
      "august": 6689,
      "aracı": 6690,
      "kilise": 6691,
      "ane": 6692,
      "ero": 6693,
      "gölü": 6694,
      "küresel": 6695,
      "anıt": 6696,
      "google": 6697,
      "şirketler": 6698,
      "mara": 6699,
      "takımlar": 6700,
      "univer": 6701,
      "chicago": 6702,
      "zy": 6703,
      "kapsamında": 6704,
      "file": 6705,
      "beklen": 6706,
      "şeker": 6707,
      "hitler": 6708,
      "çıkmıştır": 6709,
      "tru": 6710,
      "kafkas": 6711,
      "ulaşım": 6712,
      "takımyıldızı": 6713,
      "geleri": 6714,
      "kapasit": 6715,
      "ermenistan": 6716,
      "anayasa": 6717,
      "yayımlan": 6718,
      "üretilen": 6719,
      "komutanı": 6720,
      "görülür": 6721,
      "mali": 6722,
      "}{": 6723,
      "essa": 6724,
      "eren": 6725,
      "mül": 6726,
      "yere": 6727,
      "sağladı": 6728,
      "sözleşme": 6729,
      "sf": 6730,
      "lyn": 6731,
      "bbi": 6732,
      "mp": 6733,
      "verilmiştir": 6734,
      "brown": 6735,
      "iter": 6736,
      "kökenli": 6737,
      "cial": 6738,
      "yılındaki": 6739,
      "eta": 6740,
      "sanatçıları": 6741,
      "öldürüldü": 6742,
      "kenar": 6743,
      "madalyalı": 6744,
      "dom": 6745,
      "soğuk": 6746,
      "vb": 6747,
      "meli": 6748,
      "tte": 6749,
      "bizim": 6750,
      "baraj": 6751,
      "kullanılmıştır": 6752,
      "kullanan": 6753,
      "maçları": 6754,
      "ра": 6755,
      "albümün": 6756,
      "bireysel": 6757,
      "işkin": 6758,
      "ety": 6759,
      "aust": 6760,
      "boğaz": 6761,
      "mhp": 6762,
      "büs": 6763,
      "istatistik": 6764,
      "eyle": 6765,
      "insanların": 6766,
      "gesi": 6767,
      "tral": 6768,
      "ağrı": 6769,
      "abdül": 6770,
      "isinden": 6771,
      "fra": 6772,
      "tank": 6773,
      "dey": 6774,
      "team": 6775,
      "şap": 6776,
      "şampiyonluğu": 6777,
      "taraftar": 6778,
      "ihtiyaç": 6779,
      "try": 6780,
      "fried": 6781,
      "tuğu": 6782,
      "bayram": 6783,
      "ason": 6784,
      "şarkıcıları": 6785,
      "yörün": 6786,
      "michel": 6787,
      "babasının": 6788,
      "restor": 6789,
      "kaynağı": 6790,
      "rüt": 6791,
      "görülen": 6792,
      "oluşturur": 6793,
      "anlık": 6794,
      "gereken": 6795,
      "beni": 6796,
      "kulüpleri": 6797,
      "iliş": 6798,
      "akım": 6799,
      "graf": 6800,
      "scott": 6801,
      "tures": 6802,
      "jackson": 6803,
      "leye": 6804,
      "atandı": 6805,
      "rüz": 6806,
      "gerektiğini": 6807,
      "sever": 6808,
      "mehmed": 6809,
      "makal": 6810,
      "td": 6811,
      "eseri": 6812,
      "reklam": 6813,
      "1917": 6814,
      "nazi": 6815,
      "yakal": 6816,
      "varlık": 6817,
      "şehirdir": 6818,
      "ulaştı": 6819,
      "kender": 6820,
      "gazete": 6821,
      "venedik": 6822,
      "etmesi": 6823,
      "mars": 6824,
      "adlandırılmış": 6825,
      "yugos": 6826,
      "yazılan": 6827,
      "şö": 6828,
      "font": 6829,
      "asından": 6830,
      "ilgilen": 6831,
      "kendine": 6832,
      "kuy": 6833,
      "uf": 6834,
      "urnal": 6835,
      "ettik": 6836,
      "ege": 6837,
      "bahs": 6838,
      "konstantin": 6839,
      "ucusu": 6840,
      "karış": 6841,
      "chr": 6842,
      "bosna": 6843,
      "nah": 6844,
      "tane": 6845,
      "kapalı": 6846,
      "getirdi": 6847,
      "emekli": 6848,
      "led": 6849,
      "imli": 6850,
      "tl": 6851,
      "başlarında": 6852,
      "teydi": 6853,
      "uyan": 6854,
      "nez": 6855,
      "alexander": 6856,
      "arena": 6857,
      "bulunmuştur": 6858,
      "ross": 6859,
      "zır": 6860,
      "utu": 6861,
      "chus": 6862,
      "lemesi": 6863,
      "iyorum": 6864,
      "federasyon": 6865,
      "öğrenci": 6866,
      "hacı": 6867,
      "cami": 6868,
      "adaki": 6869,
      "tive": 6870,
      "manastır": 6871,
      "sinan": 6872,
      "ash": 6873,
      "içine": 6874,
      "ute": 6875,
      "mul": 6876,
      "arda": 6877,
      "yönlendir": 6878,
      "nick": 6879,
      "jac": 6880,
      "iner": 6881,
      "rağı": 6882,
      "antrenör": 6883,
      "şeri": 6884,
      "yargı": 6885,
      "london": 6886,
      "ödüller": 6887,
      "ât": 6888,
      "royal": 6889,
      "vı": 6890,
      "şarkıcılar": 6891,
      "alanda": 6892,
      "glas": 6893,
      "halkın": 6894,
      "esindeki": 6895,
      "sözc": 6896,
      "demokrasi": 6897,
      "kitapları": 6898,
      "evlendi": 6899,
      "fox": 6900,
      "division": 6901,
      "i̇skender": 6902,
      "vakfı": 6903,
      "scho": 6904,
      "acağını": 6905,
      "kıya": 6906,
      "yapmaktadır": 6907,
      "yapımcısı": 6908,
      "servis": 6909,
      "nil": 6910,
      "lıdır": 6911,
      "doğa": 6912,
      "journal": 6913,
      "amıştır": 6914,
      "ruz": 6915,
      "örgütü": 6916,
      "yugoslav": 6917,
      "ml": 6918,
      "komitesi": 6919,
      "aker": 6920,
      "pierre": 6921,
      "başkent": 6922,
      "ric": 6923,
      "ört": 6924,
      "iletişim": 6925,
      "usa": 6926,
      "edecek": 6927,
      "yaşanan": 6928,
      "zek": 6929,
      "köş": 6930,
      "itable": 6931,
      "salon": 6932,
      "demiryolu": 6933,
      "allah": 6934,
      "cap": 6935,
      "ida": 6936,
      "görevini": 6937,
      "genişlet": 6938,
      "böcek": 6939,
      "yasası": 6940,
      "mülk": 6941,
      "kalesi": 6942,
      "125": 6943,
      "anah": 6944,
      "alarından": 6945,
      "arch": 6946,
      "fonksiyon": 6947,
      "nobel": 6948,
      "düşünc": 6949,
      "füz": 6950,
      "başlangıçta": 6951,
      "heim": 6952,
      "dönüştür": 6953,
      "yapılır": 6954,
      "uğur": 6955,
      "muhtem": 6956,
      "düşür": 6957,
      "ota": 6958,
      "büyükelç": 6959,
      "masa": 6960,
      "ios": 6961,
      "çağdaş": 6962,
      "muhtemelen": 6963,
      "lığında": 6964,
      "süresi": 6965,
      "football": 6966,
      "yapmaya": 6967,
      "115": 6968,
      "archi": 6969,
      "bell": 6970,
      "fla": 6971,
      "wikitable": 6972,
      "parkı": 6973,
      "halil": 6974,
      "trt": 6975,
      "nükleer": 6976,
      "cit": 6977,
      "kurgusal": 6978,
      "akşam": 6979,
      "mektup": 6980,
      "filminde": 6981,
      "chart": 6982,
      "demo": 6983,
      "mevcuttur": 6984,
      "olis": 6985,
      "evlilik": 6986,
      "mutfa": 6987,
      "karakterler": 6988,
      "defn": 6989,
      "105": 6990,
      "protesto": 6991,
      "taht": 6992,
      "korku": 6993,
      "uml": 6994,
      "bozuk": 6995,
      "fur": 6996,
      "dava": 6997,
      "gerekir": 6998,
      "math": 6999,
      "yandan": 7000,
      "ild": 7001,
      "klip": 7002,
      "oğuz": 7003,
      "brezilyalı": 7004,
      "pozisyonunda": 7005,
      "toplamda": 7006,
      "öğrenciler": 7007,
      "trabzonspor": 7008,
      "senaryo": 7009,
      "jones": 7010,
      "oyunun": 7011,
      "dünyada": 7012,
      "pool": 7013,
      "ни": 7014,
      "basketbolcuları": 7015,
      "sop": 7016,
      "south": 7017,
      "antlaşması": 7018,
      "ıdır": 7019,
      "yanıt": 7020,
      "simon": 7021,
      "seya": 7022,
      "bankası": 7023,
      "ezya": 7024,
      "galaksidir": 7025,
      "ılıyor": 7026,
      "şev": 7027,
      "animasyon": 7028,
      "analiz": 7029,
      "yayımlandı": 7030,
      "gelişim": 7031,
      "gli": 7032,
      "üretimi": 7033,
      "bbc": 7034,
      "yaşındaki": 7035,
      "taşımaktadır": 7036,
      "kadir": 7037,
      "pom": 7038,
      "tia": 7039,
      "problem": 7040,
      "compan": 7041,
      "ayla": 7042,
      "alıdır": 7043,
      "nicol": 7044,
      "takımları": 7045,
      "gers": 7046,
      "bölgesine": 7047,
      "karbon": 7048,
      "eksik": 7049,
      "düs": 7050,
      "tehdit": 7051,
      "labor": 7052,
      "ith": 7053,
      "jet": 7054,
      "teknoloj": 7055,
      "sebebiyle": 7056,
      "lg": 7057,
      "görsel": 7058,
      "gelmektedir": 7059,
      "ettiğini": 7060,
      "şirketleri": 7061,
      "recep": 7062,
      "fun": 7063,
      "ilçesi": 7064,
      "önde": 7065,
      "projesi": 7066,
      "takımında": 7067,
      "birimleri": 7068,
      "üretic": 7069,
      "tiler": 7070,
      "birden": 7071,
      "teşvik": 7072,
      "pers": 7073,
      "düzenlen": 7074,
      "bilinmiyor": 7075,
      "oluşumlar": 7076,
      "kayseri": 7077,
      "reddet": 7078,
      "ical": 7079,
      "üstlendi": 7080,
      "1913": 7081,
      "%;": 7082,
      "seslendirme": 7083,
      "saadet": 7084,
      "alo": 7085,
      "atletizm": 7086,
      "cc": 7087,
      "asist": 7088,
      "galip": 7089,
      "tarihsel": 7090,
      ")'": 7091,
      "vermiştir": 7092,
      "work": 7093,
      "produ": 7094,
      "elle": 7095,
      "arab": 7096,
      "şampiyonluk": 7097,
      "uşak": 7098,
      "bolu": 7099,
      "davet": 7100,
      "bf": 7101,
      "lardaki": 7102,
      "cinayet": 7103,
      "şü": 7104,
      "şans": 7105,
      "stu": 7106,
      "lise": 7107,
      "sonradan": 7108,
      "modeli": 7109,
      "101": 7110,
      "1911": 7111,
      "gemi": 7112,
      "i̇sa": 7113,
      "bana": 7114,
      "8000": 7115,
      "özgün": 7116,
      "cambridge": 7117,
      "proje": 7118,
      "alternatif": 7119,
      "denizi": 7120,
      "alia": 7121,
      "kaydetti": 7122,
      "tekin": 7123,
      "âh": 7124,
      "gazeteci": 7125,
      "hein": 7126,
      "cinstir": 7127,
      "112": 7128,
      "who": 7129,
      "ped": 7130,
      "listesinde": 7131,
      "liy": 7132,
      "rut": 7133,
      "sinir": 7134,
      "gold": 7135,
      "rusça": 7136,
      "lığının": 7137,
      "even": 7138,
      "yaprak": 7139,
      "civarında": 7140,
      "piyade": 7141,
      "takv": 7142,
      "numaralı": 7143,
      "zinc": 7144,
      "yolcu": 7145,
      "ortadan": 7146,
      "takımının": 7147,
      "selim": 7148,
      "ilişkileri": 7149,
      "denir": 7150,
      "ilerde": 7151,
      "sw": 7152,
      "zırh": 7153,
      "mağlup": 7154,
      "carl": 7155,
      "molek": 7156,
      "tatlı": 7157,
      "pav": 7158,
      "areti": 7159,
      "karl": 7160,
      "emiştir": 7161,
      "öykü": 7162,
      "cey": 7163,
      "balıkesir": 7164,
      "aceae": 7165,
      "şüph": 7166,
      "gökyüz": 7167,
      "mütte": 7168,
      "fars": 7169,
      "uluğ": 7170,
      "mahkemesi": 7171,
      "1915": 7172,
      "ison": 7173,
      "çatışmalar": 7174,
      "prodük": 7175,
      "sarayı": 7176,
      "dramatik": 7177,
      "zade": 7178,
      "vor": 7179,
      "vurgul": 7180,
      "viyana": 7181,
      "hayatta": 7182,
      "bini": 7183,
      "müdürü": 7184,
      "başkanlık": 7185,
      "dağıl": 7186,
      "teleskop": 7187,
      "vers": 7188,
      "hattı": 7189,
      "iyel": 7190,
      "yaparak": 7191,
      "main": 7192,
      "platin": 7193,
      "liye": 7194,
      "ertesi": 7195,
      "i̇y": 7196,
      "gösterdi": 7197,
      "allen": 7198,
      "oluşturan": 7199,
      "news": 7200,
      "afgan": 7201,
      "şı": 7202,
      "olmadı": 7203,
      "körfe": 7204,
      "pus": 7205,
      "tabak": 7206,
      "kanadalı": 7207,
      "white": 7208,
      "aklı": 7209,
      "sex": 7210,
      "jef": 7211,
      "philip": 7212,
      "mond": 7213,
      "solo": 7214,
      "state": 7215,
      "rel": 7216,
      "sali": 7217,
      "deprem": 7218,
      "thur": 7219,
      "getirildi": 7220,
      "kaçır": 7221,
      "ikinc": 7222,
      "yunanca": 7223,
      "soya": 7224,
      "kazananlar": 7225,
      "soruştur": 7226,
      "asi": 7227,
      "pur": 7228,
      "nedeni": 7229,
      "see": 7230,
      "ssc": 7231,
      "profili": 7232,
      "çocukları": 7233,
      "seyahat": 7234,
      "asa": 7235,
      "müzikal": 7236,
      "sene": 7237,
      "hakan": 7238,
      "finale": 7239,
      "değildi": 7240,
      "won": 7241,
      "isto": 7242,
      "stone": 7243,
      "herkes": 7244,
      "emiş": 7245,
      "cent": 7246,
      "refah": 7247,
      "senary": 7248,
      "sahipliği": 7249,
      "cik": 7250,
      "papa": 7251,
      "ego": 7252,
      "önceleri": 7253,
      "karşılaştır": 7254,
      "şanlı": 7255,
      "face": 7256,
      "het": 7257,
      "harry": 7258,
      "imin": 7259,
      "ophyl": 7260,
      "alay": 7261,
      "tech": 7262,
      "ikisi": 7263,
      "insanı": 7264,
      "gg": 7265,
      "yüzölçümü": 7266,
      "araz": 7267,
      "ordin": 7268,
      "çanakkale": 7269,
      "tüf": 7270,
      "eo": 7271,
      "gıda": 7272,
      "hus": 7273,
      "yang": 7274,
      "lası": 7275,
      "gerektir": 7276,
      "özgürlük": 7277,
      "boyu": 7278,
      "alara": 7279,
      "great": 7280,
      "kong": 7281,
      "sıcaklık": 7282,
      "greg": 7283,
      "istifa": 7284,
      "vermek": 7285,
      "avan": 7286,
      "başardı": 7287,
      "filmografi": 7288,
      "çalışmaya": 7289,
      "olsun": 7290,
      "series": 7291,
      "iline": 7292,
      "alfab": 7293,
      "1910": 7294,
      "çıkardı": 7295,
      "holly": 7296,
      "uch": 7297,
      "barcel": 7298,
      "kuzeyinde": 7299,
      "liberal": 7300,
      "ía": 7301,
      "game": 7302,
      "başarıları": 7303,
      "mücadel": 7304,
      "giderek": 7305,
      "şarkının": 7306,
      "mov": 7307,
      "yedek": 7308,
      "emr": 7309,
      "lamaya": 7310,
      "atina": 7311,
      "girl": 7312,
      "yolo": 7313,
      "çaplı": 7314,
      "eline": 7315,
      "mezarlığı": 7316,
      "bach": 7317,
      "akademisyen": 7318,
      "christ": 7319,
      "iyileş": 7320,
      "i̇şçi": 7321,
      "saç": 7322,
      "köpek": 7323,
      "halkı": 7324,
      "here": 7325,
      "aran": 7326,
      "aga": 7327,
      "durumunda": 7328,
      "gla": 7329,
      "i̇d": 7330,
      "disk": 7331,
      "öncel": 7332,
      "abeth": 7333,
      "covid": 7334,
      "eston": 7335,
      "1916": 7336,
      "beğ": 7337,
      "adi": 7338,
      "yazılı": 7339,
      "your": 7340,
      "maddeler": 7341,
      "high": 7342,
      "röpor": 7343,
      "evinde": 7344,
      "altyapı": 7345,
      "itz": 7346,
      "devletler": 7347,
      "beg": 7348,
      "umsuz": 7349,
      "klar": 7350,
      "sürdü": 7351,
      "ensis": 7352,
      "1908": 7353,
      "1900": 7354,
      "aralarında": 7355,
      "elendir": 7356,
      "toplumsal": 7357,
      "birleşmiş": 7358,
      "ülük": 7359,
      "yü": 7360,
      "lemeye": 7361,
      "terek": 7362,
      "ed8000": 7363,
      "}\\": 7364,
      "versiyonu": 7365,
      "sıralam": 7366,
      "abil": 7367,
      "liğinin": 7368,
      "toplu": 7369,
      "barcelona": 7370,
      "almaya": 7371,
      "halka": 7372,
      "seg": 7373,
      "arnavutluk": 7374,
      "düzenli": 7375,
      "ume": 7376,
      "buluş": 7377,
      "açıklamada": 7378,
      "fakült": 7379,
      "yir": 7380,
      "europe": 7381,
      "raz": 7382,
      "etkile": 7383,
      "sizlik": 7384,
      "kurucusu": 7385,
      "unlu": 7386,
      "sün": 7387,
      "yetik": 7388,
      "dıkları": 7389,
      "röportaj": 7390,
      "zamanlar": 7391,
      "dad": 7392,
      "stem": 7393,
      "bilecek": 7394,
      "sezonun": 7395,
      "(%": 7396,
      "bart": 7397,
      "heart": 7398,
      "taşıma": 7399,
      "köl": 7400,
      "180": 7401,
      "mari": 7402,
      "yaşan": 7403,
      "gösterildi": 7404,
      "ym": 7405,
      "elec": 7406,
      "page": 7407,
      "ettiler": 7408,
      "steri": 7409,
      "spek": 7410,
      "tutul": 7411,
      "tap": 7412,
      "aksine": 7413,
      "ozof": 7414,
      "elinde": 7415,
      "berto": 7416,
      "dalında": 7417,
      "sz": 7418,
      "ıza": 7419,
      "umut": 7420,
      "bakış": 7421,
      "risk": 7422,
      "göçmen": 7423,
      "halef": 7424,
      "faktör": 7425,
      "bilinmektedir": 7426,
      "verilir": 7427,
      "polon": 7428,
      "eddin": 7429,
      "gezegen": 7430,
      "çetin": 7431,
      "parlak": 7432,
      "eji": 7433,
      "luğunu": 7434,
      "karmaşık": 7435,
      "koreli": 7436,
      "ake": 7437,
      "cenaz": 7438,
      "apple": 7439,
      "iyoruz": 7440,
      "duyurdu": 7441,
      "geldiği": 7442,
      "büny": 7443,
      "leyic": 7444,
      "katı": 7445,
      "cell": 7446,
      "neg": 7447,
      "işlev": 7448,
      "layıcı": 7449,
      "bölgenin": 7450,
      "114": 7451,
      "kazakistan": 7452,
      "adlandırılan": 7453,
      "christian": 7454,
      "sche": 7455,
      "ilişkiler": 7456,
      "atya": 7457,
      "görüle": 7458,
      "cks": 7459,
      "evri": 7460,
      "ölmüştür": 7461,
      "çisi": 7462,
      "olduğundan": 7463,
      "ette": 7464,
      "ll": 7465,
      "beden": 7466,
      "olumlu": 7467,
      "anahtar": 7468,
      "azalt": 7469,
      "blue": 7470,
      "bundes": 7471,
      "çalışır": 7472,
      "sahil": 7473,
      "dot": 7474,
      "alanan": 7475,
      "aleksan": 7476,
      "istedi": 7477,
      "ria": 7478,
      "gelebilir": 7479,
      "zim": 7480,
      "yüzünden": 7481,
      "117": 7482,
      "playstation": 7483,
      "yaşlı": 7484,
      "ekibi": 7485,
      "inti": 7486,
      "kurban": 7487,
      "xi": 7488,
      "kiralık": 7489,
      "kis": 7490,
      "akış": 7491,
      "160": 7492,
      "tahta": 7493,
      "cio": 7494,
      "rica": 7495,
      "dalg": 7496,
      "orto": 7497,
      "etki": 7498,
      "amir": 7499,
      "akademik": 7500,
      "society": 7501,
      "stratej": 7502,
      "elerden": 7503,
      "idam": 7504,
      "band": 7505,
      "kok": 7506,
      "tet": 7507,
      "sınıfı": 7508,
      "bina": 7509,
      "soruml": 7510,
      "filozof": 7511,
      ":*": 7512,
      "akın": 7513,
      "dakikada": 7514,
      "katalog": 7515,
      "edition": 7516,
      "sonlarında": 7517,
      "dé": 7518,
      "bebek": 7519,
      "oynayan": 7520,
      "figür": 7521,
      "</": 7522,
      "tev": 7523,
      "group": 7524,
      "biçimde": 7525,
      "ily": 7526,
      "yayınlar": 7527,
      "run": 7528,
      "yarışı": 7529,
      "paral": 7530,
      "hayır": 7531,
      "fant": 7532,
      "mutlu": 7533,
      "genelde": 7534,
      "103": 7535,
      "nişan": 7536,
      "emez": 7537,
      "vari": 7538,
      "700": 7539,
      "potan": 7540,
      "hızla": 7541,
      "cara": 7542,
      "hayal": 7543,
      "cumhurbaşkanlığı": 7544,
      "endüstr": 7545,
      "çalışması": 7546,
      "ederken": 7547,
      "113": 7548,
      "ilmesini": 7549,
      "alardan": 7550,
      "hastanesi": 7551,
      "seçimlerinde": 7552,
      "sistemleri": 7553,
      "ısını": 7554,
      "bk": 7555,
      "çen": 7556,
      "faessa": 7557,
      "nüfusunun": 7558,
      "evrifaessa": 7559,
      "song": 7560,
      "maçına": 7561,
      "villa": 7562,
      "başbakanı": 7563,
      "çekilmiş": 7564,
      "eum": 7565,
      "birimi": 7566,
      "hırvatistan": 7567,
      "albert": 7568,
      "bunlardan": 7569,
      "ferr": 7570,
      "gio": 7571,
      "layacak": 7572,
      "company": 7573,
      "ayarak": 7574,
      "lanmaktadır": 7575,
      "gruplar": 7576,
      "çizg": 7577,
      "rolünde": 7578,
      "unsur": 7579,
      "şiş": 7580,
      "oluşmaktadır": 7581,
      "yürüy": 7582,
      "sonuna": 7583,
      "eliz": 7584,
      "söylen": 7585,
      "çağr": 7586,
      "galeri": 7587,
      "jr": 7588,
      "fli": 7589,
      "colum": 7590,
      "kullanılabilir": 7591,
      "guay": 7592,
      "yolları": 7593,
      "102": 7594,
      "olabile": 7595,
      "performansı": 7596,
      "altındaki": 7597,
      "celi": 7598,
      "albümler": 7599,
      "lake": 7600,
      "dream": 7601,
      "rot": 7602,
      "laur": 7603,
      "potansiy": 7604,
      "ayir": 7605,
      "dığını": 7606,
      "oynan": 7607,
      "cyclop": 7608,
      "liğinden": 7609,
      "1000": 7610,
      "unut": 7611,
      "dünyas": 7612,
      "side": 7613,
      "makedonya": 7614,
      "lez": 7615,
      "awards": 7616,
      "hanım": 7617,
      "sayfası": 7618,
      "artış": 7619,
      "fili": 7620,
      "gerçekleştirilen": 7621,
      "eman": 7622,
      "harit": 7623,
      "günümüze": 7624,
      "isteyen": 7625,
      "özelliği": 7626,
      "bik": 7627,
      "dna": 7628,
      "türleri": 7629,
      "piskop": 7630,
      "çalıştır": 7631,
      "çıl": 7632,
      "this": 7633,
      "hong": 7634,
      "suik": 7635,
      "hill": 7636,
      "brun": 7637,
      "little": 7638,
      "als": 7639,
      "more": 7640,
      "cüm": 7641,
      "önceden": 7642,
      "fta": 7643,
      "acaktır": 7644,
      "göv": 7645,
      "uzat": 7646,
      "online": 7647,
      "anlay": 7648,
      "telek": 7649,
      "feth": 7650,
      "desteği": 7651,
      "360": 7652,
      "amaçlı": 7653,
      "eserler": 7654,
      "numara": 7655,
      "müttefik": 7656,
      "keşif": 7657,
      "pakistan": 7658,
      "serv": 7659,
      "nesn": 7660,
      "wolf": 7661,
      "leşme": 7662,
      "familyası": 7663,
      "muhafaz": 7664,
      "anlaşma": 7665,
      "104": 7666,
      "lok": 7667,
      "denet": 7668,
      "power": 7669,
      "||||": 7670,
      "france": 7671,
      "annes": 7672,
      "keşfedilmiştir": 7673,
      "kuru": 7674,
      "renkli": 7675,
      "dıktan": 7676,
      "senarist": 7677,
      "championship": 7678,
      "140": 7679,
      "isiyle": 7680,
      "termin": 7681,
      "street": 7682,
      "saur": 7683,
      "eric": 7684,
      "komşu": 7685,
      "pun": 7686,
      "itler": 7687,
      "adayı": 7688,
      "önder": 7689,
      "malara": 7690,
      "kulübünde": 7691,
      "upright": 7692,
      "kalmıştır": 7693,
      "long": 7694,
      "yağmur": 7695,
      "güneyinde": 7696,
      "sec": 7697,
      "imzaladı": 7698,
      "edildiği": 7699,
      "hollandalı": 7700,
      "edilebilir": 7701,
      "antonio": 7702,
      "dt": 7703,
      "dk": 7704,
      "bakü": 7705,
      "çekti": 7706,
      "orit": 7707,
      "açıldı": 7708,
      "haw": 7709,
      "uzan": 7710,
      "miss": 7711,
      "gelin": 7712,
      "nesil": 7713,
      "karışık": 7714,
      "phen": 7715,
      "ailesinin": 7716,
      "109": 7717,
      "prensi": 7718,
      "taşındı": 7719,
      "hai": 7720,
      "yakıt": 7721,
      "ısına": 7722,
      "geliştirme": 7723,
      "halde": 7724,
      "uncu": 7725,
      "eğlen": 7726,
      "reli": 7727,
      "ater": 7728,
      "yah": 7729,
      "dışarı": 7730,
      "hikâye": 7731,
      "çekim": 7732,
      "oylama": 7733,
      "öv": 7734,
      "istih": 7735,
      "amel": 7736,
      "reform": 7737,
      "\"—": 7738,
      "dent": 7739,
      "katıldığı": 7740,
      "hatt": 7741,
      "estra": 7742,
      "ito": 7743,
      "rop": 7744,
      "kırık": 7745,
      "ović": 7746,
      "öde": 7747,
      "liman": 7748,
      "litvanya": 7749,
      "brook": 7750,
      "kaptan": 7751,
      "otto": 7752,
      "devre": 7753,
      "copa": 7754,
      "maur": 7755,
      "hos": 7756,
      "107": 7757,
      "salt": 7758,
      "ign": 7759,
      "carol": 7760,
      "eceği": 7761,
      "ilendir": 7762,
      "sınırlı": 7763,
      "valisi": 7764,
      "sep": 7765,
      "kanalı": 7766,
      "nişanı": 7767,
      "rafi": 7768,
      "ligde": 7769,
      "cezayir": 7770,
      "manisa": 7771,
      "dizinin": 7772,
      "name": 7773,
      "osunu": 7774,
      "geliştirilen": 7775,
      "felsefe": 7776,
      "mühendisliği": 7777,
      "robin": 7778,
      "selçuklu": 7779,
      "burn": 7780,
      "onlara": 7781,
      "school": 7782,
      "bıraktı": 7783,
      "vüc": 7784,
      "çıka": 7785,
      "finan": 7786,
      "east": 7787,
      "olağan": 7788,
      "ow": 7789,
      "hd": 7790,
      "ilmesine": 7791,
      "grad": 7792,
      "rio": 7793,
      "değeri": 7794,
      "gini": 7795,
      "olmadan": 7796,
      "başlıca": 7797,
      "ciğ": 7798,
      "savaşları": 7799,
      "aşamaya": 7800,
      "binası": 7801,
      "alanları": 7802,
      "görevlendir": 7803,
      "hart": 7804,
      "doks": 7805,
      "bundesliga": 7806,
      "tüket": 7807,
      "önü": 7808,
      "enfek": 7809,
      "küre": 7810,
      "özellikler": 7811,
      "kilometre": 7812,
      "tipik": 7813,
      "darı": 7814,
      "seçimi": 7815,
      ".:": 7816,
      "dead": 7817,
      "beler": 7818,
      "boston": 7819,
      "süreci": 7820,
      "pse": 7821,
      "dağları": 7822,
      "joe": 7823,
      "118": 7824,
      "manuel": 7825,
      "ğünü": 7826,
      "stri": 7827,
      ":(": 7828,
      "cevap": 7829,
      "maçın": 7830,
      "public": 7831,
      "kaybol": 7832,
      "chy": 7833,
      "taylor": 7834,
      "thor": 7835,
      ":\"": 7836,
      "tatar": 7837,
      "vücut": 7838,
      "tün": 7839,
      "şef": 7840,
      "özbek": 7841,
      "birlikleri": 7842,
      "nie": 7843,
      "dalga": 7844,
      "dilleri": 7845,
      "çevrim": 7846,
      "editör": 7847,
      "krist": 7848,
      "kütüphanesi": 7849,
      "gerilim": 7850,
      "benzeri": 7851,
      "soğ": 7852,
      "yetişkin": 7853,
      "hastalı": 7854,
      "deplas": 7855,
      "çab": 7856,
      "banka": 7857,
      "116": 7858,
      "dayalı": 7859,
      "kadı": 7860,
      "mahallenin": 7861,
      "sarmal": 7862,
      "dah": 7863,
      "unt": 7864,
      "savaşın": 7865,
      "evlen": 7866,
      "johnson": 7867,
      "jar": 7868,
      "yetk": 7869,
      "felsef": 7870,
      "okyanus": 7871,
      "head": 7872,
      "mük": 7873,
      "ğımız": 7874,
      "suyu": 7875,
      "youtu": 7876,
      "mamıştır": 7877,
      "ihra": 7878,
      "kadrosu": 7879,
      "polonyalı": 7880,
      "sandal": 7881,
      "flori": 7882,
      "tunus": 7883,
      "yarım": 7884,
      "öncelik": 7885,
      "sakarya": 7886,
      "katliam": 7887,
      "yaratı": 7888,
      "partiler": 7889,
      "niz": 7890,
      "zih": 7891,
      "koru": 7892,
      "kt": 7893,
      "caz": 7894,
      "şeyh": 7895,
      "ilişkili": 7896,
      "ophyllum": 7897,
      "yed": 7898,
      "alım": 7899,
      "karşın": 7900,
      "disko": 7901,
      "tenis": 7902,
      "koleksiyon": 7903,
      "desteğ": 7904,
      "ка": 7905,
      "likleri": 7906,
      "god": 7907,
      "madığı": 7908,
      "laborat": 7909,
      "nadir": 7910,
      "birbirine": 7911,
      "(;": 7912,
      "paket": 7913,
      "pam": 7914,
      "christop": 7915,
      "yellow": 7916,
      "besteci": 7917,
      "otel": 7918,
      "esn": 7919,
      "ülasyon": 7920,
      "android": 7921,
      "deplasman": 7922,
      "gb": 7923,
      "chin": 7924,
      "ılıp": 7925,
      "semt": 7926,
      "sayımı": 7927,
      "erler": 7928,
      "spir": 7929,
      "edilenler": 7930,
      "sürgün": 7931,
      "sızlık": 7932,
      "zelanda": 7933,
      "turda": 7934,
      "108": 7935,
      "helen": 7936,
      "taar": 7937,
      "otomatik": 7938,
      "raj": 7939,
      "santa": 7940,
      "esin": 7941,
      "tasvir": 7942,
      "system": 7943,
      "bülent": 7944,
      "başlamış": 7945,
      "altfamilyasına": 7946,
      "tepk": 7947,
      "iptal": 7948,
      "bölgeye": 7949,
      "rekabet": 7950,
      "bulb": 7951,
      "kendisinin": 7952,
      "wei": 7953,
      "lib": 7954,
      "stef": 7955,
      "dn": 7956,
      "kullanılarak": 7957,
      "aşık": 7958,
      "turk": 7959,
      "dergi": 7960,
      "home": 7961,
      "rubus": 7962,
      "edirne": 7963,
      "ulmuş": 7964,
      "programları": 7965,
      "karısı": 7966,
      "hamil": 7967,
      "elazı": 7968,
      "open": 7969,
      "edip": 7970,
      "opter": 7971,
      "maruz": 7972,
      "konuyla": 7973,
      "sakat": 7974,
      "elazığ": 7975,
      "ologi": 7976,
      "jung": 7977,
      "jane": 7978,
      "eve": 7979,
      "tanış": 7980,
      "dimir": 7981,
      "gray": 7982,
      "bakanları": 7983,
      "alıyor": 7984,
      "rük": 7985,
      "dj": 7986,
      "cli": 7987,
      "muhalef": 7988,
      "taz": 7989,
      "1907": 7990,
      "ebu": 7991,
      "verg": 7992,
      "bölümde": 7993,
      "coğrafi": 7994,
      "ikili": 7995,
      "year": 7996,
      "seni": 7997,
      "malatya": 7998,
      "liver": 7999,
      "wski": 8000,
      "komutanlığı": 8001,
      "madalyası": 8002,
      "fırsat": 8003,
      "süs": 8004,
      "seçilmiştir": 8005,
      "106": 8006,
      "gresi": 8007,
      "serie": 8008,
      "wel": 8009,
      "hanedan": 8010,
      "story": 8011,
      "erişilmiştir": 8012,
      "bed": 8013,
      "altay": 8014,
      "kolon": 8015,
      "duygu": 8016,
      "its": 8017,
      "ned": 8018,
      "alandır": 8019,
      "yavuz": 8020,
      "bulbophyllum": 8021,
      "kazı": 8022,
      "yola": 8023,
      "hücre": 8024,
      "rekoru": 8025,
      "bing": 8026,
      "fair": 8027,
      "açılış": 8028,
      "tezi": 8029,
      "boya": 8030,
      "unes": 8031,
      "heav": 8032,
      "josé": 8033,
      "japan": 8034,
      "temsilcisi": 8035,
      "marie": 8036,
      "\"—\"": 8037,
      "konuşma": 8038,
      "hayran": 8039,
      "teorisi": 8040,
      "magn": 8041,
      "klarını": 8042,
      "bayrağı": 8043,
      "kullanır": 8044,
      "zet": 8045,
      "spon": 8046,
      "sezonda": 8047,
      "personel": 8048,
      "aspor": 8049,
      "road": 8050,
      "yaklaşım": 8051,
      "posta": 8052,
      "sırt": 8053,
      "bugünkü": 8054,
      "barındır": 8055,
      "olumsuz": 8056,
      "yaşındayken": 8057,
      "dalı": 8058,
      "galer": 8059,
      "çıkart": 8060,
      "kullandığı": 8061,
      "kp": 8062,
      "imza": 8063,
      "hasar": 8064,
      "pist": 8065,
      "rakam": 8066,
      "padi": 8067,
      "bölümler": 8068,
      "pson": 8069,
      "alif": 8070,
      "sürdürdü": 8071,
      "view": 8072,
      "aşkın": 8073,
      "suudi": 8074,
      "kudüs": 8075,
      "koordin": 8076,
      "mike": 8077,
      "şirketin": 8078,
      "bayan": 8079,
      "dvd": 8080,
      "devrimi": 8081,
      "ğım": 8082,
      "gelişmiş": 8083,
      "reş": 8084,
      "sıvı": 8085,
      "dark": 8086,
      "bnan": 8087,
      "kaybeden": 8088,
      "sunucu": 8089,
      "encyclop": 8090,
      "1909": 8091,
      "buğ": 8092,
      "hollywood": 8093,
      "arif": 8094,
      "barat": 8095,
      "amerikalılar": 8096,
      "****": 8097,
      "anime": 8098,
      "dizisinde": 8099,
      "müf": 8100,
      "blok": 8101,
      "beli": 8102,
      "anlamlara": 8103,
      "birisi": 8104,
      "giydi": 8105,
      "ets": 8106,
      "sözcü": 8107,
      "farklılık": 8108,
      "mensubu": 8109,
      "kolom": 8110,
      "will": 8111,
      "oyunculuk": 8112,
      "avcı": 8113,
      "ilişki": 8114,
      "ören": 8115,
      "arttır": 8116,
      "belirten": 8117,
      "romalı": 8118,
      "lübnan": 8119,
      "youtube": 8120,
      "games": 8121,
      "\"'": 8122,
      "nic": 8123,
      "finali": 8124,
      "yönel": 8125,
      "yetiş": 8126,
      "ortodoks": 8127,
      "arama": 8128,
      "speci": 8129,
      "ор": 8130,
      "darbe": 8131,
      "atlar": 8132,
      "ciğer": 8133,
      "yazılmış": 8134,
      "fırlat": 8135,
      "kırı": 8136,
      "buda": 8137,
      "uçağı": 8138,
      "genetik": 8139,
      "artan": 8140,
      "erdem": 8141,
      "ming": 8142,
      "ame": 8143,
      "steve": 8144,
      "diyor": 8145,
      "olution": 8146,
      "yugoslavya": 8147,
      "phone": 8148,
      "gerçekleşen": 8149,
      "ude": 8150,
      "pkk": 8151,
      "what": 8152,
      "tutar": 8153,
      "shar": 8154,
      "dede": 8155,
      "official": 8156,
      "oğulları": 8157,
      "büyüm": 8158,
      "katılımcı": 8159,
      "tc": 8160,
      "cinsiyet": 8161,
      "ıf": 8162,
      "i̇ttifak": 8163,
      "kriz": 8164,
      "iklim": 8165,
      "larus": 8166,
      "lerindeki": 8167,
      "hans": 8168,
      "juan": 8169,
      "^{": 8170,
      "türlü": 8171,
      "two": 8172,
      "ödülünü": 8173,
      "çılık": 8174,
      "yetenek": 8175,
      "şunları": 8176,
      "zeki": 8177,
      "”,": 8178,
      "sahipti": 8179,
      "laboratuvar": 8180,
      "köylü": 8181,
      "volkan": 8182,
      "tali": 8183,
      "tris": 8184,
      "yip": 8185,
      "ilerden": 8186,
      "kıt": 8187,
      "merce": 8188,
      "artvin": 8189,
      "çeviri": 8190,
      "born": 8191,
      "anyalı": 8192,
      "türkç": 8193,
      "katkıda": 8194,
      "ij": 8195,
      "michi": 8196,
      "yalan": 8197,
      "etiket": 8198,
      "birimler": 8199,
      "kuram": 8200,
      "kompl": 8201,
      "kartal": 8202,
      "konferans": 8203,
      "kurmay": 8204,
      "direktörler": 8205,
      "ref": 8206,
      "arabistan": 8207,
      "lewis": 8208,
      "yönetmenliğini": 8209,
      "liliği": 8210,
      "boks": 8211,
      "landığı": 8212,
      "worth": 8213,
      "sıralama": 8214,
      "karanlık": 8215,
      "rest": 8216,
      "shak": 8217,
      "wall": 8218,
      "river": 8219,
      "otik": 8220,
      "oksi": 8221,
      "cisimler": 8222,
      "avi": 8223,
      "ork": 8224,
      "tokat": 8225,
      "cephesi": 8226,
      "ilenin": 8227,
      "mete": 8228,
      "zincir": 8229,
      "elizabeth": 8230,
      "hepsi": 8231,
      "associ": 8232,
      "128": 8233,
      "bağış": 8234,
      "folk": 8235,
      "başlandı": 8236,
      "ebek": 8237,
      "uyu": 8238,
      "dance": 8239,
      "ib": 8240,
      "ors": 8241,
      "memur": 8242,
      "hastalığı": 8243,
      "çel": 8244,
      "macera": 8245,
      "sm": 8246,
      "parishler": 8247,
      "cilerin": 8248,
      "hati": 8249,
      "vü": 8250,
      "veli": 8251,
      "formu": 8252,
      "dc": 8253,
      "tony": 8254,
      "cry": 8255,
      "erdi": 8256,
      "esidir": 8257,
      "kins": 8258,
      "yenilen": 8259,
      "hariç": 8260,
      "hek": 8261,
      "gene": 8262,
      "sound": 8263,
      "bomb": 8264,
      "kaleci": 8265,
      "ulur": 8266,
      "britanyalı": 8267,
      "sürül": 8268,
      ".;": 8269,
      "doku": 8270,
      "taarruz": 8271,
      "alkol": 8272,
      "seçen": 8273,
      "arş": 8274,
      "chu": 8275,
      "oldukları": 8276,
      "gökhan": 8277,
      "moda": 8278,
      "yeterli": 8279,
      "gerçekleşti": 8280,
      "kalma": 8281,
      "arkadaşları": 8282,
      "vladimir": 8283,
      "rab": 8284,
      "carlos": 8285,
      "kesim": 8286,
      "gümrük": 8287,
      "oluştuğu": 8288,
      "1901": 8289,
      "lut": 8290,
      "ative": 8291,
      "kongre": 8292,
      "hang": 8293,
      "i̇skoçya": 8294,
      "spar": 8295,
      "oglos": 8296,
      "maraş": 8297,
      "ısının": 8298,
      "beyin": 8299,
      "borç": 8300,
      "incelem": 8301,
      "maça": 8302,
      "çerçev": 8303,
      "ан": 8304,
      "island": 8305,
      "german": 8306,
      "bağımsızlık": 8307,
      "ayrılır": 8308,
      "amayan": 8309,
      "birinin": 8310,
      "maddeleri": 8311,
      "kla": 8312,
      "kağı": 8313,
      "vili": 8314,
      "step": 8315,
      "malıdır": 8316,
      "1906": 8317,
      "colspan10": 8318,
      "afganistan": 8319,
      "ер": 8320,
      "radio": 8321,
      "111": 8322,
      "sten": 8323,
      "resi": 8324,
      "shin": 8325,
      "fe0000": 8326,
      "girmiştir": 8327,
      "zirve": 8328,
      "ydi": 8329,
      "illi": 8330,
      "doktora": 8331,
      "baskın": 8332,
      "plin": 8333,
      "işık": 8334,
      "karakteri": 8335,
      "aw": 8336,
      "görür": 8337,
      "sanatlar": 8338,
      "usta": 8339,
      "bağlıdır": 8340,
      "değişim": 8341,
      "yaka": 8342,
      "francisco": 8343,
      "gerekç": 8344,
      "kastam": 8345,
      "ikip": 8346,
      "lady": 8347,
      "miz": 8348,
      "instit": 8349,
      "mimari": 8350,
      "ışın": 8351,
      "fay": 8352,
      "space": 8353,
      "azal": 8354,
      "beat": 8355,
      "yapılacak": 8356,
      "tasarımı": 8357,
      "sport": 8358,
      "münih": 8359,
      "kontluğunda": 8360,
      "ordusunun": 8361,
      "kısıt": 8362,
      "arthur": 8363,
      "ivan": 8364,
      "hail": 8365,
      "vent": 8366,
      "cdd": 8367,
      "mişlerdir": 8368,
      "viet": 8369,
      "stephen": 8370,
      "konsol": 8371,
      "konak": 8372,
      "gösteri": 8373,
      "miras": 8374,
      "pc": 8375,
      "karşılı": 8376,
      "aylık": 8377,
      "itibarı": 8378,
      "yahud": 8379,
      "ilerinde": 8380,
      "laşma": 8381,
      "museum": 8382,
      "hekim": 8383,
      "kle": 8384,
      "toria": 8385,
      "rez": 8386,
      "ress": 8387,
      "cuma": 8388,
      "belarus": 8389,
      "seviye": 8390,
      "170": 8391,
      "devletin": 8392,
      "görünüm": 8393,
      "şarap": 8394,
      "erik": 8395,
      "kemik": 8396,
      "lord": 8397,
      "kadınların": 8398,
      "tcdd": 8399,
      "üyeliği": 8400,
      "güneydoğu": 8401,
      "evrim": 8402,
      "pad": 8403,
      "zehir": 8404,
      "önüne": 8405,
      "oscar": 8406,
      "uta": 8407,
      "üme": 8408,
      "işareti": 8409,
      "roy": 8410,
      "hid": 8411,
      "amış": 8412,
      "zira": 8413,
      "ín": 8414,
      "çocuklar": 8415,
      "i̇lç": 8416,
      "şöval": 8417,
      "tablos": 8418,
      "binin": 8419,
      "aux": 8420,
      "isindeki": 8421,
      "başladığı": 8422,
      "tıbbi": 8423,
      "turn": 8424,
      "cay": 8425,
      "getiren": 8426,
      "hakkındaki": 8427,
      "parçacık": 8428,
      "biya": 8429,
      "romantik": 8430,
      "gökyüzünde": 8431,
      "ates": 8432,
      "kuruluşu": 8433,
      "liverpool": 8434,
      "yakınlarında": 8435,
      "vücu": 8436,
      ";\"": 8437,
      "balt": 8438,
      "halen": 8439,
      "yoz": 8440,
      "açıklandı": 8441,
      "wig": 8442,
      "urfa": 8443,
      "ents": 8444,
      "özet": 8445,
      "hok": 8446,
      "protein": 8447,
      "mediği": 8448,
      "resimler": 8449,
      "karaca": 8450,
      "görülmektedir": 8451,
      "ürünleri": 8452,
      "geomet": 8453,
      "135": 8454,
      "mışlardır": 8455,
      "salih": 8456,
      "cf": 8457,
      "ceğ": 8458,
      "sesi": 8459,
      "sözcük": 8460,
      "denin": 8461,
      "çerk": 8462,
      "uzu": 8463,
      "geçerli": 8464,
      "anap": 8465,
      "arslan": 8466,
      "ardı": 8467,
      "1905": 8468,
      "bölümleri": 8469,
      "tuş": 8470,
      "ailenin": 8471,
      "nep": 8472,
      "avantaj": 8473,
      "michigan": 8474,
      "arac": 8475,
      "monte": 8476,
      "belirtir": 8477,
      "eus": 8478,
      "olun": 8479,
      "mensup": 8480,
      "tarihçi": 8481,
      "samsung": 8482,
      "english": 8483,
      "sekreteri": 8484,
      "mağına": 8485,
      "gov": 8486,
      "tepki": 8487,
      "göm": 8488,
      "listeler": 8489,
      "i̇lin": 8490,
      "görünt": 8491,
      "squ": 8492,
      "aska": 8493,
      "mühendislik": 8494,
      "içerik": 8495,
      "düzenleme": 8496,
      "iew": 8497,
      "lasi": 8498,
      "inşaat": 8499,
      "900": 8500,
      "cili": 8501,
      "ado": 8502,
      "yunus": 8503,
      "nato": 8504,
      "marka": 8505,
      "science": 8506,
      "çekilen": 8507,
      "vakıf": 8508,
      "geçmiştir": 8509,
      "master": 8510,
      "çekirdek": 8511,
      "sürede": 8512,
      "kaps": 8513,
      "twit": 8514,
      "vermektedir": 8515,
      "üyordu": 8516,
      "ölümüne": 8517,
      "doğr": 8518,
      "abı": 8519,
      "four": 8520,
      "bekir": 8521,
      "dayanan": 8522,
      "basketbolcular": 8523,
      "latince": 8524,
      "omo": 8525,
      "hizmetleri": 8526,
      "cé": 8527,
      "siyasal": 8528,
      "rıza": 8529,
      "zin": 8530,
      "karadağ": 8531,
      "ıldığında": 8532,
      "vergi": 8533,
      "harris": 8534,
      "kazandır": 8535,
      "zaten": 8536,
      "ар": 8537,
      "tamamlanan": 8538,
      "walter": 8539,
      "ated": 8540,
      "çağır": 8541,
      "yos": 8542,
      "cham": 8543,
      "yarımada": 8544,
      "mahkeme": 8545,
      "albümde": 8546,
      "ecektir": 8547,
      "deş": 8548,
      "yaman": 8549,
      "türkler": 8550,
      "xbox": 8551,
      "şili": 8552,
      "danışman": 8553,
      "ayeti": 8554,
      "mesinde": 8555,
      "tuk": 8556,
      "eto": 8557,
      "kork": 8558,
      "lıklar": 8559,
      "direktörü": 8560,
      "açılan": 8561,
      "anus": 8562,
      "kars": 8563,
      "doldur": 8564,
      "zamanlarda": 8565,
      "saman": 8566,
      "bastır": 8567,
      "stock": 8568,
      "haçlı": 8569,
      "saygı": 8570,
      "yerelnet": 8571,
      "padişah": 8572,
      "fantas": 8573,
      "lüt": 8574,
      "album": 8575,
      "reich": 8576,
      "cou": 8577,
      "tarihte": 8578,
      "değişken": 8579,
      "sr": 8580,
      "lerdi": 8581,
      "düğünü": 8582,
      "pictures": 8583,
      "121": 8584,
      "lanabilir": 8585,
      "düzenlendi": 8586,
      "akıllı": 8587,
      "caktır": 8588,
      "hou": 8589,
      "diğerleri": 8590,
      "ness": 8591,
      "fis": 8592,
      "1904": 8593,
      "family": 8594,
      "dağılım": 8595,
      "tz": 8596,
      "muğ": 8597,
      "remi": 8598,
      "familyasıdır": 8599,
      "kh": 8600,
      "sloven": 8601,
      "ete": 8602,
      "teker": 8603,
      "çukur": 8604,
      "kevin": 8605,
      "galler": 8606,
      "oyuna": 8607,
      "yansı": 8608,
      "süreli": 8609,
      "evet": 8610,
      "taç": 8611,
      "grammy": 8612,
      "çav": 8613,
      "suikast": 8614,
      "centur": 8615,
      "march": 8616,
      "klav": 8617,
      "yerler": 8618,
      "eds": 8619,
      "şehirde": 8620,
      "ciz": 8621,
      "ismini": 8622,
      "i̇mam": 8623,
      "emniyet": 8624,
      "bow": 8625,
      "ödem": 8626,
      "yapılması": 8627,
      "kastamonu": 8628,
      "buff": 8629,
      "yükselt": 8630,
      "anları": 8631,
      "eşlik": 8632,
      "thi": 8633,
      "melek": 8634,
      "endon": 8635,
      "belirterek": 8636,
      "college": 8637,
      "parma": 8638,
      "ulaştır": 8639,
      "varlığı": 8640,
      "şov": 8641,
      "olanak": 8642,
      "zamanında": 8643,
      "değerli": 8644,
      "tarzı": 8645,
      "dney": 8646,
      "kişidir": 8647,
      "turnuvası": 8648,
      "??": 8649,
      "konuda": 8650,
      "biriydi": 8651,
      "ografisi": 8652,
      "jör": 8653,
      "artesi": 8654,
      "sscb": 8655,
      "death": 8656,
      "korumak": 8657,
      "maddesi": 8658,
      "(,": 8659,
      "olası": 8660,
      "eklen": 8661,
      "piş": 8662,
      "imal": 8663,
      ",\"": 8664,
      "marmara": 8665,
      "farsça": 8666,
      "ülkesi": 8667,
      "kontrolü": 8668,
      "yüzü": 8669,
      "hasta": 8670,
      "digit": 8671,
      "mih": 8672,
      "kütle": 8673,
      "aksu": 8674,
      "bildirdi": 8675,
      "}}": 8676,
      "brian": 8677,
      "dokun": 8678,
      "maması": 8679,
      "iser": 8680,
      "rahi": 8681,
      "sorunu": 8682,
      "vard": 8683,
      "teleskopla": 8684,
      "güçlendir": 8685,
      "gang": 8686,
      "oluşturdu": 8687,
      "kada": 8688,
      "anlamda": 8689,
      "görüldü": 8690,
      "olayı": 8691,
      "yakalan": 8692,
      "karıştır": 8693,
      "975": 8694,
      "?\"": 8695,
      "jav": 8696,
      "ök": 8697,
      "donanması": 8698,
      "fren": 8699,
      "özgü": 8700,
      "cengiz": 8701,
      "denizli": 8702,
      "edisi": 8703,
      "ello": 8704,
      "arc": 8705,
      "atlı": 8706,
      "iktidar": 8707,
      "syn": 8708,
      "tabanlı": 8709,
      "burak": 8710,
      "gönderildi": 8711,
      "ont": 8712,
      "çağrı": 8713,
      "abilmektedir": 8714,
      "ışma": 8715,
      "mercedes": 8716,
      "bilimleri": 8717,
      "adlandırılır": 8718,
      "çevrimiçi": 8719,
      "rize": 8720,
      ";\"|": 8721,
      "işletim": 8722,
      "shift": 8723,
      "ırk": 8724,
      "kaba": 8725,
      "bitirdi": 8726,
      "ergen": 8727,
      "edebiyatı": 8728,
      "intihar": 8729,
      "024": 8730,
      "protokol": 8731,
      "edu": 8732,
      "azeri": 8733,
      "kısmen": 8734,
      "liğindeki": 8735,
      "afyon": 8736,
      "elerle": 8737,
      "veriş": 8738,
      "ziya": 8739,
      "i̇çişleri": 8740,
      "arlar": 8741,
      "prus": 8742,
      "tunç": 8743,
      "ondan": 8744,
      "yirmi": 8745,
      "oglossum": 8746,
      "kalır": 8747,
      "koyu": 8748,
      "okun": 8749,
      "sergilen": 8750,
      "listeleri": 8751,
      "andrew": 8752,
      "alacak": 8753,
      "water": 8754,
      "slo": 8755,
      "işbirliği": 8756,
      "oyunlar": 8757,
      "mod": 8758,
      "ense": 8759,
      "karşıya": 8760,
      "seds": 8761,
      "nd": 8762,
      "libr": 8763,
      "kredi": 8764,
      "america": 8765,
      "duruş": 8766,
      "kütah": 8767,
      "altıncı": 8768,
      "atmos": 8769,
      "sony": 8770,
      "apol": 8771,
      "norman": 8772,
      "ches": 8773,
      "eceğini": 8774,
      "attığı": 8775,
      "nijer": 8776,
      "turan": 8777,
      "moon": 8778,
      "sé": 8779,
      "lamış": 8780,
      "divan": 8781,
      "vietnam": 8782,
      "mé": 8783,
      "işler": 8784,
      "1902": 8785,
      "lock": 8786,
      "kültürü": 8787,
      "olym": 8788,
      "duyar": 8789,
      "hand": 8790,
      "gires": 8791,
      "madal": 8792,
      "komplek": 8793,
      "lasioglossum": 8794,
      "yayı": 8795,
      "avustralyalı": 8796,
      "i̇şlet": 8797,
      "wwe": 8798,
      "perde": 8799,
      "milan": 8800,
      "kesi": 8801,
      "afrikalı": 8802,
      "konuşan": 8803,
      "grubunun": 8804,
      "fall": 8805,
      "hero": 8806,
      "friedrich": 8807,
      "şehit": 8808,
      "yanına": 8809,
      "nüfusun": 8810,
      "123": 8811,
      "bulundur": 8812,
      "pdf": 8813,
      "yd": 8814,
      "kendilerini": 8815,
      "itif": 8816,
      "kot": 8817,
      "yürüyüş": 8818,
      "kân": 8819,
      "incelen": 8820,
      "abbas": 8821,
      "bian": 8822,
      "caf": 8823,
      "liz": 8824,
      "okudu": 8825,
      "aria": 8826,
      "sisteminin": 8827,
      "göreve": 8828,
      "arsen": 8829,
      "145": 8830,
      "muhafız": 8831,
      "alfred": 8832,
      "tüy": 8833,
      "bölgeleri": 8834,
      "yerinde": 8835,
      "sekreter": 8836,
      "arken": 8837,
      "cemal": 8838,
      "athan": 8839,
      "phia": 8840,
      "dolu": 8841,
      "bury": 8842,
      "elif": 8843,
      "website": 8844,
      "kanunu": 8845,
      "massa": 8846,
      "wilson": 8847,
      "1903": 8848,
      "çubuk": 8849,
      "deut": 8850,
      "bilimi": 8851,
      "dolaş": 8852,
      "cover": 8853,
      "mix": 8854,
      "izasyon": 8855,
      "kütahya": 8856,
      "solan": 8857,
      "rose": 8858,
      "uyucu": 8859,
      "kanı": 8860,
      "venez": 8861,
      "güler": 8862,
      "yöntemi": 8863,
      "svg": 8864,
      "keskin": 8865,
      "alınmıştır": 8866,
      "sitesinde": 8867,
      "sakin": 8868,
      "ayrın": 8869,
      "books": 8870,
      "fernan": 8871,
      "hei": 8872,
      "sevgil": 8873,
      "122": 8874,
      "lira": 8875,
      "mevki": 8876,
      "yayınlanmıştır": 8877,
      "tron": 8878,
      "mahmut": 8879,
      "vez": 8880,
      "mede": 8881,
      "ural": 8882,
      "çıktığı": 8883,
      "çevresinde": 8884,
      "merkezinde": 8885,
      "organize": 8886,
      "açıdan": 8887,
      "tapın": 8888,
      "zorunlu": 8889,
      "lüğe": 8890,
      "fort": 8891,
      "giresun": 8892,
      "öncesinde": 8893,
      "fakültesinde": 8894,
      "ilerinden": 8895,
      "mana": 8896,
      "vadisi": 8897,
      "holding": 8898,
      "formula": 8899,
      "olacaktır": 8900,
      "mathbf": 8901,
      "gide": 8902,
      "sürümü": 8903,
      "gey": 8904,
      "layıp": 8905,
      "ücretsiz": 8906,
      "yiye": 8907,
      "nokia": 8908,
      "karşıtı": 8909,
      "cl": 8910,
      "origin": 8911,
      "html": 8912,
      "dino": 8913,
      "şük": 8914,
      "hersek": 8915,
      "yürür": 8916,
      "tıktan": 8917,
      "serdar": 8918,
      "fire": 8919,
      "kosova": 8920,
      "dövüş": 8921,
      "mud": 8922,
      "ferrari": 8923,
      "seferi": 8924,
      "ote": 8925,
      "saniye": 8926,
      "geçirdiği": 8927,
      "mahalleler": 8928,
      "irler": 8929,
      "bulan": 8930,
      "tüfek": 8931,
      "kişiyi": 8932,
      "grek": 8933,
      "ılmasına": 8934,
      "maliyet": 8935,
      "donald": 8936,
      "tha": 8937,
      "bünyesinde": 8938,
      "turgut": 8939,
      "hatay": 8940,
      "miktarda": 8941,
      "1890": 8942,
      "mekaniz": 8943,
      "ug": 8944,
      "ligue": 8945,
      "karşılığında": 8946,
      "oid": 8947,
      "araba": 8948,
      "golden": 8949,
      "how": 8950,
      "tanınan": 8951,
      "irken": 8952,
      "nalı": 8953,
      "ebru": 8954,
      "aur": 8955,
      "amon": 8956,
      "arkeolojik": 8957,
      "yerleri": 8958,
      "iyer": 8959,
      "feli": 8960,
      "gelmiş": 8961,
      "amin": 8962,
      "patrick": 8963,
      "sürüldü": 8964,
      "hede": 8965,
      "oi": 8966,
      "açıklan": 8967,
      "episo": 8968,
      "andar": 8969,
      "119": 8970,
      "child": 8971,
      "suna": 8972,
      "beck": 8973,
      "davul": 8974,
      "kimi": 8975,
      "hent": 8976,
      "oblas": 8977,
      "kron": 8978,
      "kuyruk": 8979,
      "bec": 8980,
      "kamera": 8981,
      "etrafında": 8982,
      "riz": 8983,
      "reh": 8984,
      "bakımından": 8985,
      "i̇li": 8986,
      "tanıtım": 8987,
      "kişilerin": 8988,
      "rt": 8989,
      "çerkes": 8990,
      "arazi": 8991,
      "oymağına": 8992,
      "zamanla": 8993,
      "trum": 8994,
      "wich": 8995,
      "yapma": 8996,
      "kalit": 8997,
      "i̇sveçli": 8998,
      "florida": 8999,
      "flam": 9000,
      "bilgisi": 9001,
      "liter": 9002,
      "tığını": 9003,
      "karaman": 9004,
      "kimlik": 9005,
      "yenilg": 9006,
      "phila": 9007,
      "paralel": 9008,
      "sell": 9009,
      "gönüllü": 9010,
      "seven": 9011,
      "lüğünü": 9012,
      "chem": 9013,
      "poly": 9014,
      "muhalefet": 9015,
      "malarını": 9016,
      "dion": 9017,
      "ispor": 9018,
      "anlatan": 9019,
      "beğen": 9020,
      "gemisi": 9021,
      "syl": 9022,
      "miller": 9023,
      "ortasında": 9024,
      "kası": 9025,
      "pagan": 9026,
      "zemin": 9027,
      "tale": 9028,
      "tana": 9029,
      "kitaplar": 9030,
      "arşiv": 9031,
      "dinamik": 9032,
      "dikal": 9033,
      "sinyal": 9034,
      "ardi": 9035,
      "durumlarda": 9036,
      "erol": 9037,
      "senaryosunu": 9038,
      "ılmasını": 9039,
      "aşı": 9040,
      "piyano": 9041,
      "twitter": 9042,
      "qui": 9043,
      "görüşmeler": 9044,
      "parmak": 9045,
      "kaymakam": 9046,
      "dong": 9047,
      "remix": 9048,
      "zamana": 9049,
      "sıklıkla": 9050,
      "karşılıklı": 9051,
      "aff": 9052,
      "i̇spanyolca": 9053,
      "bilm": 9054,
      "geçerek": 9055,
      "alev": 9056,
      "puanlar": 9057,
      "inanç": 9058,
      "victor": 9059,
      "erkan": 9060,
      "tamamı": 9061,
      "sq": 9062,
      "orkes": 9063,
      "arts": 9064,
      "yama": 9065,
      "dut": 9066,
      "sezonunun": 9067,
      "defnedilenler": 9068,
      "bai": 9069,
      "sad": 9070,
      "hiss": 9071,
      "olayları": 9072,
      "riyet": 9073,
      "yangın": 9074,
      "potansiyel": 9075,
      "ittifak": 9076,
      "opolis": 9077,
      "mtv": 9078,
      "aittir": 9079,
      "çeken": 9080,
      "islam": 9081,
      "yonu": 9082,
      "kırsal": 9083,
      "gördüğü": 9084,
      "mardin": 9085,
      "patri": 9086,
      "sym": 9087,
      "linux": 9088,
      "sömür": 9089,
      "anak": 9090,
      "franço": 9091,
      "pazarı": 9092,
      "müze": 9093,
      "romanları": 9094,
      "127": 9095,
      "esen": 9096,
      "manyetik": 9097,
      "filmidir": 9098,
      "nitelendir": 9099,
      "birer": 9100,
      "ûm": 9101,
      "çocuğ": 9102,
      "milit": 9103,
      "about": 9104,
      "thy": 9105,
      "ülkelerde": 9106,
      "sığ": 9107,
      "mağaz": 9108,
      "cezası": 9109,
      "ough": 9110,
      "like": 9111,
      "okum": 9112,
      "toprakları": 9113,
      "soylu": 9114,
      "tarafında": 9115,
      "133": 9116,
      "iklop": 9117,
      "ümit": 9118,
      "rüzg": 9119,
      "statüsü": 9120,
      "asal": 9121,
      "roket": 9122,
      "wang": 9123,
      "fic": 9124,
      "huz": 9125,
      "adri": 9126,
      "tım": 9127,
      "bestel": 9128,
      "dağıtım": 9129,
      "tayyip": 9130,
      "lei": 9131,
      "olacağını": 9132,
      "kişiden": 9133,
      "çılar": 9134,
      "media": 9135,
      "juni": 9136,
      "166": 9137,
      "kocaeli": 9138,
      "1896": 9139,
      "senin": 9140,
      "uer": 9141,
      "eğitimini": 9142,
      "bilimkurgu": 9143,
      "vek": 9144,
      "uyuştur": 9145,
      "parlamentosu": 9146,
      "roger": 9147,
      "çilik": 9148,
      "emmel": 9149,
      "konus": 9150,
      "koleji": 9151,
      "haus": 9152,
      "kazandığı": 9153,
      "spe": 9154,
      "e1": 9155,
      "sürücü": 9156,
      "yahudiler": 9157,
      "db": 9158,
      "güçleri": 9159,
      "mund": 9160,
      "sorunları": 9161,
      "cine": 9162,
      "şeyi": 9163,
      "güreşçi": 9164,
      "blin": 9165,
      "sson": 9166,
      "jay": 9167,
      "155": 9168,
      "arz": 9169,
      "maksim": 9170,
      "philadel": 9171,
      "uli": 9172,
      "kaçın": 9173,
      "ayrım": 9174,
      "stru": 9175,
      "sic": 9176,
      "oğl": 9177,
      "müst": 9178,
      "kendilerine": 9179,
      "kafkasya": 9180,
      "yenerek": 9181,
      "psy": 9182,
      "hazırlanan": 9183,
      "hizmeti": 9184,
      "californi": 9185,
      "lom": 9186,
      "antum": 9187,
      "idea": 9188,
      "bölgedeki": 9189,
      "1886": 9190,
      "helm": 9191,
      "teksas": 9192,
      "taşıt": 9193,
      "cn": 9194,
      "ced": 9195,
      "askerler": 9196,
      "elidir": 9197,
      "tarihinin": 9198,
      "vanın": 9199,
      "giller": 9200,
      "olmasını": 9201,
      "kro": 9202,
      "zeme": 9203,
      "ayıp": 9204,
      "karakterleri": 9205,
      "dükten": 9206,
      "üyesidir": 9207,
      "zamanlı": 9208,
      "ois": 9209,
      "blan": 9210,
      "pod": 9211,
      "ansiklop": 9212,
      "giyen": 9213,
      "oblastı": 9214,
      "ryan": 9215,
      "öyk": 9216,
      "veril": 9217,
      "azın": 9218,
      "bren": 9219,
      "finans": 9220,
      "satan": 9221,
      "sanatçılar": 9222,
      "220": 9223,
      "ping": 9224,
      "i̇let": 9225,
      "iyileştir": 9226,
      "alis": 9227,
      "raw": 9228,
      "disney": 9229,
      "otobüs": 9230,
      "stok": 9231,
      "i̇nan": 9232,
      "musa": 9233,
      "fırt": 9234,
      "havacılık": 9235,
      "bursas": 9236,
      "etkileri": 9237,
      "a7": 9238,
      "avusturyalı": 9239,
      "toz": 9240,
      "galax": 9241,
      "kraliçe": 9242,
      "kaynakları": 9243,
      "gabri": 9244,
      "ulmuştur": 9245,
      "burun": 9246,
      "sözleri": 9247,
      "124": 9248,
      "yürü": 9249,
      "tarihlerinde": 9250,
      "biliyor": 9251,
      "1878": 9252,
      "lesi": 9253,
      "kalab": 9254,
      "elektro": 9255,
      "tum": 9256,
      "break": 9257,
      "bursaspor": 9258,
      "vilayet": 9259,
      "düşen": 9260,
      "aus": 9261,
      "inger": 9262,
      "atış": 9263,
      "i̇lçesi": 9264,
      "seyirci": 9265,
      "yin": 9266,
      "acil": 9267,
      "oyunda": 9268,
      "ople": 9269,
      "bedel": 9270,
      "katılmıştır": 9271,
      "aktris": 9272,
      "orkestr": 9273,
      "alanlar": 9274,
      "vası": 9275,
      "kalıntı": 9276,
      "kapan": 9277,
      "hara": 9278,
      "175": 9279,
      "toplama": 9280,
      "i̇p": 9281,
      "review": 9282,
      "nef": 9283,
      "havay": 9284,
      "i̇stasyon": 9285,
      "sina": 9286,
      "babasıdır": 9287,
      "ike": 9288,
      "anthony": 9289,
      "dağılımı": 9290,
      "mükemmel": 9291,
      "aro": 9292,
      "araştırmaları": 9293,
      "alarla": 9294,
      "kulüpler": 9295,
      "şehridir": 9296,
      "adres": 9297,
      "seçilmiş": 9298,
      "kilo": 9299,
      "i̇dari": 9300,
      "vii": 9301,
      "ен": 9302,
      "çorum": 9303,
      "bağlam": 9304,
      "emp": 9305,
      "hanna": 9306,
      "hizmete": 9307,
      "hentbol": 9308,
      "yağış": 9309,
      "uğraş": 9310,
      "erzin": 9311,
      "corn": 9312,
      "öte": 9313,
      "ydu": 9314,
      "lgbt": 9315,
      "ameliyat": 9316,
      "iğ": 9317,
      "__": 9318,
      "brad": 9319,
      "philadelphia": 9320,
      "ega": 9321,
      "siniz": 9322,
      "yayla": 9323,
      "1899": 9324,
      "partinin": 9325,
      "pencer": 9326,
      "rp": 9327,
      "aşaması": 9328,
      "kristal": 9329,
      "kulak": 9330,
      "sığın": 9331,
      "edile": 9332,
      "gerçekten": 9333,
      "romanı": 9334,
      "sili": 9335,
      "andrena": 9336,
      "broad": 9337,
      "aram": 9338,
      "126": 9339,
      "çoğunluğu": 9340,
      "jacques": 9341,
      "görevine": 9342,
      "dönen": 9343,
      "thre": 9344,
      "',": 9345,
      "mom": 9346,
      "did": 9347,
      "mimarlık": 9348,
      "başlattı": 9349,
      "femin": 9350,
      "zeytin": 9351,
      "öğrencisi": 9352,
      "kaçak": 9353,
      "gönderdi": 9354,
      "şiddetli": 9355,
      "\\,": 9356,
      "yitir": 9357,
      "sessiz": 9358,
      "sonsuz": 9359,
      "ery": 9360,
      "dışındaki": 9361,
      "düşünce": 9362,
      "hoca": 9363,
      "california": 9364,
      "century": 9365,
      "kongresi": 9366,
      "işçi": 9367,
      "çik": 9368,
      "ardo": 9369,
      "riba": 9370,
      "ал": 9371,
      "uyuşturucu": 9372,
      "ampton": 9373,
      "katar": 9374,
      "yumur": 9375,
      "holm": 9376,
      "kadının": 9377,
      "ving": 9378,
      "karşılan": 9379,
      "frek": 9380,
      "odası": 9381,
      "henri": 9382,
      "andré": 9383,
      "cav": 9384,
      "bğ": 9385,
      "kelime": 9386,
      "data": 9387,
      "hızı": 9388,
      "memektedir": 9389,
      "uto": 9390,
      "gayr": 9391,
      "orkestra": 9392,
      "coln": 9393,
      "köprüsü": 9394,
      "öztürk": 9395,
      "batman": 9396,
      "derecede": 9397,
      "belirgin": 9398,
      "kenan": 9399,
      "metr": 9400,
      "lıkları": 9401,
      "pozitif": 9402,
      "oksit": 9403,
      "jek": 9404,
      "veda": 9405,
      "inen": 9406,
      "i̇mparatorluk": 9407,
      "meksik": 9408,
      "binlerce": 9409,
      "politikacı": 9410,
      "engin": 9411,
      "ölçek": 9412,
      "onunla": 9413,
      "virgini": 9414,
      "trafik": 9415,
      "istatistikleri": 9416,
      "gız": 9417,
      "uyarı": 9418,
      "msz": 9419,
      "alem": 9420,
      "columbia": 9421,
      "ysk": 9422,
      "denklem": 9423,
      "mum": 9424,
      "çele": 9425,
      "belediyeleri": 9426,
      "lag": 9427,
      "nich": 9428,
      "sorta": 9429,
      "aban": 9430,
      "estonya": 9431,
      "basınç": 9432,
      "eleştirmenleri": 9433,
      "movie": 9434,
      "hul": 9435,
      "publish": 9436,
      "süm": 9437,
      "arkas": 9438,
      "lincoln": 9439,
      "terap": 9440,
      "naci": 9441,
      "vekil": 9442,
      "sayıları": 9443,
      "denem": 9444,
      "buhar": 9445,
      "numaraya": 9446,
      "ilmeye": 9447,
      "i̇yi̇": 9448,
      "gruba": 9449,
      "hikay": 9450,
      "genelinde": 9451,
      "kapa": 9452,
      "lanarak": 9453,
      "virüs": 9454,
      "komutasındaki": 9455,
      "milano": 9456,
      "victoria": 9457,
      "nen": 9458,
      "sortable": 9459,
      "gâh": 9460,
      "jik": 9461,
      "vu": 9462,
      "legen": 9463,
      "türler": 9464,
      "maliye": 9465,
      "birik": 9466,
      "yağı": 9467,
      "country": 9468,
      "bugüne": 9469,
      "sevg": 9470,
      "sign": 9471,
      "summer": 9472,
      "yarısında": 9473,
      "komündür": 9474,
      "melik": 9475,
      "onia": 9476,
      "düzenle": 9477,
      "yapıldığı": 9478,
      "zırhlı": 9479,
      "bulur": 9480,
      "ülkelerin": 9481,
      "cky": 9482,
      "ayrılan": 9483,
      "alarındaki": 9484,
      "çalışmaların": 9485,
      "wester": 9486,
      "ecza": 9487,
      "konut": 9488,
      "kahramanmaraş": 9489,
      "peygam": 9490,
      "yönetilen": 9491,
      "tümeni": 9492,
      "pasi": 9493,
      "peru": 9494,
      "asla": 9495,
      "chelsea": 9496,
      "konferansı": 9497,
      "kolej": 9498,
      "döner": 9499,
      "kalıcı": 9500,
      "anlaşması": 9501,
      "sancak": 9502,
      "sınav": 9503,
      "ulması": 9504,
      "sağlığı": 9505,
      "çelebi": 9506,
      "düm": 9507,
      "imet": 9508,
      "afc": 9509,
      "i̇nşa": 9510,
      "konsey": 9511,
      "unvanını": 9512,
      "muğla": 9513,
      "129": 9514,
      "132": 9515,
      "yargılan": 9516,
      "fron": 9517,
      "dorf": 9518,
      "evine": 9519,
      "ozan": 9520,
      "caddesi": 9521,
      "prefek": 9522,
      "fesh": 9523,
      "tuğrul": 9524,
      "tiflis": 9525,
      "lir": 9526,
      "drum": 9527,
      "piskopos": 9528,
      "hayata": 9529,
      "müzaker": 9530,
      "nuri": 9531,
      "i̇ncel": 9532,
      "çök": 9533,
      "kıyas": 9534,
      "prefektör": 9535,
      "ule": 9536,
      "ederler": 9537,
      "dî": 9538,
      "höy": 9539,
      "pé": 9540,
      "alıp": 9541,
      "frey": 9542,
      "galaxy": 9543,
      "kıyısında": 9544,
      "bğmsz": 9545,
      "müdahale": 9546,
      "yapay": 9547,
      "350": 9548,
      "örneği": 9549,
      "jers": 9550,
      "isimleri": 9551,
      "fontsize": 9552,
      "yaptıkları": 9553,
      "nitelik": 9554,
      "yiyecek": 9555,
      "takdir": 9556,
      "takımlarından": 9557,
      "öt": 9558,
      "demek": 9559,
      "но": 9560,
      "porto": 9561,
      "bellek": 9562,
      "165": 9563,
      "dragon": 9564,
      "çalışmalarına": 9565,
      "askerleri": 9566,
      "gerekçesiyle": 9567,
      "atmosfer": 9568,
      "odi": 9569,
      "adol": 9570,
      "klin": 9571,
      "sn": 9572,
      "yazılmıştır": 9573,
      "bağlantılı": 9574,
      "fayd": 9575,
      "françois": 9576,
      "bakter": 9577,
      "dale": 9578,
      "galerisi": 9579,
      "christopher": 9580,
      "olmaz": 9581,
      "radikal": 9582,
      "arasına": 9583,
      "ekiplerinden": 9584,
      "tüz": 9585,
      "pgc": 9586,
      "kaldığı": 9587,
      "vamp": 9588,
      "zamanı": 9589,
      "serti": 9590,
      "cz": 9591,
      "petro": 9592,
      "margar": 9593,
      "ely": 9594,
      "point": 9595,
      "yl": 9596,
      "moz": 9597,
      "mamaktadır": 9598,
      "lost": 9599,
      "esnasında": 9600,
      "çim": 9601,
      "otori": 9602,
      "magaz": 9603,
      "20001": 9604,
      "kırgız": 9605,
      "production": 9606,
      "1895": 9607,
      "yükselen": 9608,
      "hl": 9609,
      "ère": 9610,
      "ography": 9611,
      "damar": 9612,
      "uzanan": 9613,
      "bez": 9614,
      "ağız": 9615,
      "yaralan": 9616,
      "kâr": 9617,
      "halı": 9618,
      "devrimci": 9619,
      "sicil": 9620,
      "şeref": 9621,
      "anlayış": 9622,
      "fü": 9623,
      "women": 9624,
      "yüzme": 9625,
      "olduktan": 9626,
      "jersey": 9627,
      "d20001": 9628,
      "adamları": 9629,
      "1897": 9630,
      "üyeler": 9631,
      "gie": 9632,
      "host": 9633,
      "samuel": 9634,
      "136": 9635,
      "adının": 9636,
      "meri": 9637,
      "hayatına": 9638,
      "hâl": 9639,
      "sıfır": 9640,
      "soul": 9641,
      "academ": 9642,
      "topçu": 9643,
      "ötürü": 9644,
      "ılmaz": 9645,
      "i̇bn": 9646,
      "rejim": 9647,
      "d024": 9648,
      "dönüşüm": 9649,
      "d02433": 9650,
      "queen": 9651,
      "çalışmalarını": 9652,
      "neo": 9653,
      "mine": 9654,
      "makla": 9655,
      "organik": 9656,
      "çıkmış": 9657,
      "forması": 9658,
      "andy": 9659,
      "fit": 9660,
      "lerdeki": 9661,
      "131": 9662,
      "diskografi": 9663,
      "|%": 9664,
      "tikten": 9665,
      "gürcüce": 9666,
      "i̇hsan": 9667,
      "izmi": 9668,
      "memlek": 9669,
      "akan": 9670,
      "ikna": 9671,
      "dez": 9672,
      "tul": 9673,
      "sundu": 9674,
      "abilen": 9675,
      "ual": 9676,
      "temas": 9677,
      "psikolojik": 9678,
      "birini": 9679,
      "planı": 9680,
      "geliyor": 9681,
      "pandem": 9682,
      "erzincan": 9683,
      "baby": 9684,
      "belgeler": 9685,
      "i̇talyanca": 9686,
      "luğun": 9687,
      "furt": 9688,
      "kost": 9689,
      "efes": 9690,
      "esiz": 9691,
      "kağ": 9692,
      "koal": 9693,
      "donanım": 9694,
      "histori": 9695,
      "sıkı": 9696,
      "aristo": 9697,
      "yaşamaktadır": 9698,
      "oynamıştır": 9699,
      "xt": 9700,
      "bölgesinin": 9701,
      "kapsamlı": 9702,
      "müdahal": 9703,
      "hamilton": 9704,
      "enteg": 9705,
      "ол": 9706,
      "sertifik": 9707,
      "anderson": 9708,
      "mekanik": 9709,
      "ska": 9710,
      "tikam": 9711,
      "association": 9712,
      "helik": 9713,
      "oka": 9714,
      "bernard": 9715,
      "depart": 9716,
      "üste": 9717,
      "davis": 9718,
      "olmakla": 9719,
      "tanıtılan": 9720,
      "tetik": 9721,
      "malzeme": 9722,
      "plo": 9723,
      "cema": 9724,
      "cris": 9725,
      "enix": 9726,
      "nut": 9727,
      "kolu": 9728,
      "steven": 9729,
      "örü": 9730,
      "diklerini": 9731,
      "telekom": 9732,
      "ition": 9733,
      "i̇lhan": 9734,
      "aylarında": 9735,
      "240": 9736,
      "terimi": 9737,
      "yenil": 9738,
      "tura": 9739,
      "karşıyaka": 9740,
      "une": 9741,
      "tüken": 9742,
      "defter": 9743,
      "nab": 9744,
      "digital": 9745,
      "çilerin": 9746,
      "nus": 9747,
      "tapınak": 9748,
      "asız": 9749,
      "bırakıldı": 9750,
      "dova": 9751,
      "ista": 9752,
      "köyünde": 9753,
      "çözün": 9754,
      "siv": 9755,
      "yazıl": 9756,
      "göğ": 9757,
      "zeynep": 9758,
      "hut": 9759,
      "pasifik": 9760,
      "kaldırıldı": 9761,
      "jaco": 9762,
      "mack": 9763,
      "solanum": 9764,
      "ilham": 9765,
      "oluşturmak": 9766,
      "satışa": 9767,
      "hamam": 9768,
      "ülkeleri": 9769,
      "filipin": 9770,
      "750": 9771,
      "layık": 9772,
      "şunlardır": 9773,
      "mutl": 9774,
      "dağlık": 9775,
      "rahatsız": 9776,
      "onto": 9777,
      "ayıcı": 9778,
      "yuvar": 9779,
      "dow": 9780,
      "1898": 9781,
      "stor": 9782,
      "uyum": 9783,
      "uygulaması": 9784,
      "anik": 9785,
      "taksonomi": 9786,
      "*\"": 9787,
      "sadık": 9788,
      "harvard": 9789,
      "atma": 9790,
      "yapıyor": 9791,
      "avrup": 9792,
      "ain": 9793,
      "oluşturduğu": 9794,
      "bildirildi": 9795,
      "alli": 9796,
      "luğa": 9797,
      "yaşamış": 9798,
      "atlama": 9799,
      "lil": 9800,
      "(\\": 9801,
      "bölgelerde": 9802,
      "müret": 9803,
      "mantar": 9804,
      "köyde": 9805,
      "isiz": 9806,
      "sian": 9807,
      "alması": 9808,
      "özdemir": 9809,
      "gener": 9810,
      "küme": 9811,
      "sier": 9812,
      "giov": 9813,
      "kaza": 9814,
      "fırat": 9815,
      "bölünmüş": 9816,
      "für": 9817,
      "charlie": 9818,
      "spring": 9819,
      "bileşik": 9820,
      "insanın": 9821,
      "chur": 9822,
      "aver": 9823,
      "inş": 9824,
      "çalıştığı": 9825,
      "bağdat": 9826,
      ".-": 9827,
      "dilek": 9828,
      "schel": 9829,
      "dyp": 9830,
      "düşünülmektedir": 9831,
      "yazmıştır": 9832,
      "wes": 9833,
      "derecesi": 9834,
      "dsp": 9835,
      "santr": 9836,
      "şifr": 9837,
      "1881": 9838,
      "iği": 9839,
      "araçları": 9840,
      "muharebe": 9841,
      "eskiden": 9842,
      "138": 9843,
      "etmeyi": 9844,
      "archive": 9845,
      "137": 9846,
      "uston": 9847,
      "listesine": 9848,
      "emon": 9849,
      "şanlıurfa": 9850,
      "olasılık": 9851,
      "hedi": 9852,
      "uni": 9853,
      "vuruş": 9854,
      "ahat": 9855,
      "mediğini": 9856,
      "british": 9857,
      "racing": 9858,
      "147": 9859,
      "rd": 9860,
      "koalisyon": 9861,
      "virginia": 9862,
      "134": 9863,
      "guy": 9864,
      "210": 9865,
      "etkileşim": 9866,
      "fm": 9867,
      "biyografi": 9868,
      "146": 9869,
      "dul": 9870,
      "reaksiyon": 9871,
      "edo": 9872,
      "bileşen": 9873,
      "send": 9874,
      "kab": 9875,
      "arn": 9876,
      "robot": 9877,
      "temsilciler": 9878,
      "gizem": 9879,
      "secret": 9880,
      "valen": 9881,
      "wick": 9882,
      "livan": 9883,
      "tanınmış": 9884,
      "aynalı": 9885,
      "larca": 9886,
      "i̇lişk": 9887,
      "eter": 9888,
      "tablosu": 9889,
      "lamaları": 9890,
      "castle": 9891,
      "dâ": 9892,
      "ulaşan": 9893,
      "haftalık": 9894,
      "tuna": 9895,
      "hürriyet": 9896,
      "mb": 9897,
      "tapına": 9898,
      "thing": 9899,
      "yenin": 9900,
      "lıyor": 9901,
      "belirsiz": 9902,
      "rome": 9903,
      "stalin": 9904,
      "harekât": 9905,
[...]
